{
  "version": "1.0",
  "truncation": null,
  "padding": null,
  "added_tokens": [
    {
      "id": 0,
      "content": "<pad>",
      "single_word": false,
      "lstrip": false,
      "rstrip": false,
      "normalized": false,
      "special": true
    },
    {
      "id": 1,
      "content": "<sos>",
      "single_word": false,
      "lstrip": false,
      "rstrip": false,
      "normalized": false,
      "special": true
    },
    {
      "id": 2,
      "content": "<eos>",
      "single_word": false,
      "lstrip": false,
      "rstrip": false,
      "normalized": false,
      "special": true
    },
    {
      "id": 3,
      "content": "<unk>",
      "single_word": false,
      "lstrip": false,
      "rstrip": false,
      "normalized": false,
      "special": true
    }
  ],
  "normalizer": null,
  "pre_tokenizer": {
    "type": "ByteLevel",
    "add_prefix_space": true,
    "trim_offsets": true,
    "use_regex": false
  },
  "post_processor": {
    "type": "TemplateProcessing",
    "single": [
      {
        "Sequence": {
          "id": "A",
          "type_id": 0
        }
      },
      {
        "SpecialToken": {
          "id": "<eos>",
          "type_id": 0
        }
      }
    ],
    "pair": [
      {
        "Sequence": {
          "id": "A",
          "type_id": 0
        }
      },
      {
        "SpecialToken": {
          "id": "<eos>",
          "type_id": 0
        }
      },
      {
        "Sequence": {
          "id": "B",
          "type_id": 0
        }
      },
      {
        "SpecialToken": {
          "id": "<eos>",
          "type_id": 0
        }
      }
    ],
    "special_tokens": {
      "<eos>": {
        "id": "<eos>",
        "ids": [
          2
        ],
        "tokens": [
          "<eos>"
        ]
      }
    }
  },
  "decoder": null,
  "model": {
    "type": "BPE",
    "dropout": null,
    "unk_token": "<unk>",
    "continuing_subword_prefix": null,
    "end_of_word_suffix": null,
    "fuse_unk": true,
    "byte_fallback": false,
    "ignore_merges": false,
    "vocab": {
      "<pad>": 0,
      "<sos>": 1,
      "<eos>": 2,
      "<unk>": 3,
      "!": 4,
      "\"": 5,
      "#": 6,
      "$": 7,
      "%": 8,
      "&": 9,
      "'": 10,
      "(": 11,
      ")": 12,
      "*": 13,
      "+": 14,
      ",": 15,
      "-": 16,
      ".": 17,
      "/": 18,
      "0": 19,
      "1": 20,
      "2": 21,
      "3": 22,
      "4": 23,
      "5": 24,
      "6": 25,
      "7": 26,
      "8": 27,
      "9": 28,
      ":": 29,
      ";": 30,
      "<": 31,
      "=": 32,
      ">": 33,
      "?": 34,
      "@": 35,
      "A": 36,
      "B": 37,
      "C": 38,
      "D": 39,
      "E": 40,
      "F": 41,
      "G": 42,
      "H": 43,
      "I": 44,
      "J": 45,
      "K": 46,
      "L": 47,
      "M": 48,
      "N": 49,
      "O": 50,
      "P": 51,
      "Q": 52,
      "R": 53,
      "S": 54,
      "T": 55,
      "U": 56,
      "V": 57,
      "W": 58,
      "X": 59,
      "Y": 60,
      "Z": 61,
      "[": 62,
      "\\": 63,
      "]": 64,
      "^": 65,
      "_": 66,
      "`": 67,
      "a": 68,
      "b": 69,
      "c": 70,
      "d": 71,
      "e": 72,
      "f": 73,
      "g": 74,
      "h": 75,
      "i": 76,
      "j": 77,
      "k": 78,
      "l": 79,
      "m": 80,
      "n": 81,
      "o": 82,
      "p": 83,
      "q": 84,
      "r": 85,
      "s": 86,
      "t": 87,
      "u": 88,
      "v": 89,
      "w": 90,
      "x": 91,
      "y": 92,
      "z": 93,
      "{": 94,
      "|": 95,
      "}": 96,
      "~": 97,
      "¡": 98,
      "¢": 99,
      "£": 100,
      "¤": 101,
      "¥": 102,
      "¦": 103,
      "§": 104,
      "¨": 105,
      "©": 106,
      "ª": 107,
      "«": 108,
      "¬": 109,
      "®": 110,
      "¯": 111,
      "°": 112,
      "±": 113,
      "²": 114,
      "³": 115,
      "´": 116,
      "µ": 117,
      "¶": 118,
      "·": 119,
      "¸": 120,
      "¹": 121,
      "º": 122,
      "»": 123,
      "¼": 124,
      "½": 125,
      "¾": 126,
      "¿": 127,
      "À": 128,
      "Á": 129,
      "Â": 130,
      "Ã": 131,
      "Ä": 132,
      "Å": 133,
      "Æ": 134,
      "Ç": 135,
      "È": 136,
      "É": 137,
      "Ê": 138,
      "Ë": 139,
      "Ì": 140,
      "Í": 141,
      "Î": 142,
      "Ï": 143,
      "Ð": 144,
      "Ñ": 145,
      "Ò": 146,
      "Ó": 147,
      "Ô": 148,
      "Õ": 149,
      "Ö": 150,
      "×": 151,
      "Ø": 152,
      "Ù": 153,
      "Ú": 154,
      "Û": 155,
      "Ü": 156,
      "Ý": 157,
      "Þ": 158,
      "ß": 159,
      "à": 160,
      "á": 161,
      "â": 162,
      "ã": 163,
      "ä": 164,
      "å": 165,
      "æ": 166,
      "ç": 167,
      "è": 168,
      "é": 169,
      "ê": 170,
      "ë": 171,
      "ì": 172,
      "í": 173,
      "î": 174,
      "ï": 175,
      "ð": 176,
      "ñ": 177,
      "ò": 178,
      "ó": 179,
      "ô": 180,
      "õ": 181,
      "ö": 182,
      "÷": 183,
      "ø": 184,
      "ù": 185,
      "ú": 186,
      "û": 187,
      "ü": 188,
      "ý": 189,
      "þ": 190,
      "ÿ": 191,
      "Ā": 192,
      "ā": 193,
      "Ă": 194,
      "ă": 195,
      "Ą": 196,
      "ą": 197,
      "Ć": 198,
      "ć": 199,
      "Ĉ": 200,
      "ĉ": 201,
      "Ċ": 202,
      "ċ": 203,
      "Č": 204,
      "č": 205,
      "Ď": 206,
      "ď": 207,
      "Đ": 208,
      "đ": 209,
      "Ē": 210,
      "ē": 211,
      "Ĕ": 212,
      "ĕ": 213,
      "Ė": 214,
      "ė": 215,
      "Ę": 216,
      "ę": 217,
      "Ě": 218,
      "ě": 219,
      "Ĝ": 220,
      "ĝ": 221,
      "Ğ": 222,
      "ğ": 223,
      "Ġ": 224,
      "ġ": 225,
      "Ģ": 226,
      "ģ": 227,
      "Ĥ": 228,
      "ĥ": 229,
      "Ħ": 230,
      "ħ": 231,
      "Ĩ": 232,
      "ĩ": 233,
      "Ī": 234,
      "ī": 235,
      "Ĭ": 236,
      "ĭ": 237,
      "Į": 238,
      "į": 239,
      "İ": 240,
      "ı": 241,
      "Ĳ": 242,
      "ĳ": 243,
      "Ĵ": 244,
      "ĵ": 245,
      "Ķ": 246,
      "ķ": 247,
      "ĸ": 248,
      "Ĺ": 249,
      "ĺ": 250,
      "Ļ": 251,
      "ļ": 252,
      "Ľ": 253,
      "ľ": 254,
      "Ŀ": 255,
      "ŀ": 256,
      "Ł": 257,
      "ł": 258,
      "Ń": 259,
      "eĠ": 260,
      "Ġt": 261,
      "čĊ": 262,
      "ä¸": 263,
      "Ġth": 264,
      "Ġa": 265,
      "in": 266,
      "çļ": 267,
      "çļĦ": 268,
      "tĠ": 269,
      "ä»": 270,
      "ï¼": 271,
      "sĠ": 272,
      "er": 273,
      "ï¼Į": 274,
      "äº": 275,
      "dĠ": 276,
      ".čĊ": 277,
      "æĪ": 278,
      "ou": 279,
      ",Ġ": 280,
      "on": 281,
      "æĪĳ": 282,
      "è¿": 283,
      "en": 284,
      "ĠtheĠ": 285,
      "ãĢ": 286,
      "oĠ": 287,
      "yĠ": 288,
      "ãĢĤ": 289,
      "æĺ": 290,
      "an": 291,
      "Ġå": 292,
      "or": 293,
      "ing": 294,
      "æľ": 295,
      "th": 296,
      "æĺ¯": 297,
      "ä»¬": 298,
      "ä½": 299,
      "ãĢĤčĊ": 300,
      "at": 301,
      "es": 302,
      "al": 303,
      "of": 304,
      "åı": 305,
      "ä¸Ģ": 306,
      "Ġan": 307,
      "ar": 308,
      "è¿Ļ": 309,
      "åľ": 310,
      "åĪ": 311,
      "å¤": 312,
      "it": 313,
      "re": 314,
      "å®": 315,
      "st": 316,
      "ä¹": 317,
      "ä¸ª": 318,
      "atĠ": 319,
      "om": 320,
      "Ġw": 321,
      "ĠtoĠ": 322,
      "æĪĳä»¬": 323,
      "ic": 324,
      "isĠ": 325,
      "ï¼ĮĠ": 326,
      "ĠaĠ": 327,
      "åħ": 328,
      "æľī": 329,
      "åľ¨": 330,
      "çĶ": 331,
      "you": 332,
      "åĲ": 333,
      "is": 334,
      "ll": 335,
      "å°": 336,
      "ow": 337,
      "è¯": 338,
      "ĠandĠ": 339,
      "äºĨ": 340,
      "ç»": 341,
      "è®": 342,
      "ofĠ": 343,
      "ha": 344,
      "ä¸į": 345,
      "äºº": 346,
      "ion": 347,
      "ingĠ": 348,
      "ed": 349,
      "ĠI": 350,
      "veĠ": 351,
      "ä¼": 352,
      "æĿ": 353,
      "ec": 354,
      "ĠA": 355,
      "ĥ½": 356,
      "ä½ł": 357,
      "æī": 358,
      "å¾": 359,
      "ä»ĸ": 360,
      "wh": 361,
      "åŃ": 362,
      "us": 363,
      "âĢ": 364,
      "çļĦæ": 365,
      "ĠthatĠ": 366,
      "le": 367,
      "Ġs": 368,
      "Ġc": 369,
      "ac": 370,
      "eĠth": 371,
      "ver": 372,
      "éĩ": 373,
      "li": 374,
      "ĠT": 375,
      "åĽ": 376,
      "åĬ": 377,
      "åĪ°": 378,
      "as": 379,
      "edĠ": 380,
      "ä»¥": 381,
      "for": 382,
      "ĠAn": 383,
      "èĢ": 384,
      "ä¸º": 385,
      "all": 386,
      "Ġthe": 387,
      "ĠTh": 388,
      "æĹ": 389,
      "reĠ": 390,
      "ro": 391,
      "æĿ¥": 392,
      "el": 393,
      "leĠ": 394,
      "æĸ": 395,
      "ent": 396,
      "Ġm": 397,
      "å¹": 398,
      "ä¸Ģä¸ª": 399,
      "im": 400,
      "'sĠ": 401,
      "id": 402,
      "lo": 403,
      "è§": 404,
      "äºĽ": 405,
      "å¸": 406,
      "ä¼ļ": 407,
      "çľ": 408,
      "æĥ": 409,
      "gh": 410,
      "å¼": 411,
      "Ġp": 412,
      "et": 413,
      "å·": 414,
      "ch": 415,
      "op": 416,
      "èĥ½": 417,
      "ä¸Ĭ": 418,
      "æł": 419,
      "å¥": 420,
      "ç§": 421,
      "Ġè¿Ļ": 422,
      "weĠ": 423,
      "éĤ": 424,
      "¦ģ": 425,
      "itĠ": 426,
      "çİ": 427,
      "Ġd": 428,
      "Ġto": 429,
      "åį": 430,
      "è¦ģ": 431,
      "ay": 432,
      "çī": 433,
      "ĠæĪĳ": 434,
      "go": 435,
      "Ġb": 436,
      "ereĠ": 437,
      "e.čĊ": 438,
      "ĠS": 439,
      "æĢ": 440,
      "éĤ£": 441,
      "esĠ": 442,
      "åı¯": 443,
      "ir": 444,
      "å°±": 445,
      "æŃ": 446,
      "am": 447,
      "å¯": 448,
      "--": 449,
      "ĴĮ": 450,
      "åĩ": 451,
      "ï¼ĮĠå": 452,
      "çĶŁ": 453,
      "å¤§": 454,
      "un": 455,
      "åº": 456,
      "éĿ": 457,
      "éĹ": 458,
      "ä»ĸä»¬": 459,
      "éĢ": 460,
      "ith": 461,
      "no": 462,
      "æīĢ": 463,
      "ĠthisĠ": 464,
      "Ġin": 465,
      "¦Ĥ": 466,
      "ĠW": 467,
      "çĽ": 468,
      "ĠAndĠ": 469,
      "ut": 470,
      "æĬ": 471,
      "il": 472,
      "ä¸Ń": 473,
      "æŀ": 474,
      "åİ": 475,
      "åĨ": 476,
      "ol": 477,
      "ri": 478,
      ",ĠandĠ": 479,
      "èĩ": 480,
      "e,Ġ": 481,
      "Ġyou": 482,
      "æķ": 483,
      "Ġand": 484,
      "haveĠ": 485,
      "s.čĊ": 486,
      "åĴĮ": 487,
      "ä¹Ī": 488,
      "Ġthat": 489,
      "if": 490,
      "ur": 491,
      "åģ": 492,
      "è¡": 493,
      "åĳ": 494,
      "em": 495,
      "èµ": 496,
      "our": 497,
      "è¯´": 498,
      "os": 499,
      "çľĭ": 500,
      "ex": 501,
      "æ²": 502,
      "çİ°": 503,
      "æ¯": 504,
      "ter": 505,
      "ation": 506,
      "ĠæĪĳä»¬": 507,
      "Ġf": 508,
      "æĹ¶": 509,
      "å½": 510,
      "éĩĮ": 511,
      "æĦ": 512,
      "ak": 513,
      "Ġh": 514,
      "ra": 515,
      "æĥ³": 516,
      "çĶ¨": 517,
      "ear": 518,
      "å¤ļ": 519,
      "æł·": 520,
      "è¿ĩ": 521,
      "ä½Ĩ": 522,
      "å¿": 523,
      "åĮ": 524,
      "asĠ": 525,
      "oul": 526,
      "Ġab": 527,
      "ä¹Ł": 528,
      "åľ°": 529,
      "èĢĮ": 530,
      "now": 531,
      "äºĭ": 532,
      "ofĠtheĠ": 533,
      "éĥ½": 534,
      "å¾Ī": 535,
      "utĠ": 536,
      "ill": 537,
      "ther": 538,
      "çļĦç": 539,
      "å®ĥ": 540,
      "é¢": 541,
      "ne": 542,
      "s,Ġ": 543,
      "be": 544,
      "å®¶": 545,
      "outĠ": 546,
      "äºİ": 547,
      "éģ": 548,
      "ĠB": 549,
      "åıĳ": 550,
      "ul": 551,
      "ç§į": 552,
      "toĠ": 553,
      "æĶ": 554,
      "æ³": 555,
      "å¾Ĺ": 556,
      "ï¼Ł": 557,
      "allyĠ": 558,
      "èĩª": 559,
      "åĲİ": 560,
      "å¹´": 561,
      "åģļ": 562,
      "åŃĲ": 563,
      "eĠs": 564,
      "å¯¹": 565,
      "com": 566,
      "ad": 567,
      "æĪĲ": 568,
      "'tĠ": 569,
      "âĢľ": 570,
      "ag": 571,
      "ab": 572,
      "æĭ": 573,
      "oun": 574,
      "åŃ¦": 575,
      "çĦ": 576,
      "ä½ľ": 577,
      "åı¯ä»¥": 578,
      "ell": 579,
      "wor": 580,
      "åĩº": 581,
      "çĦ¶": 582,
      "æİ": 583,
      "oneĠ": 584,
      "with": 585,
      "out": 586,
      "Ġwh": 587,
      "up": 588,
      "çŁ": 589,
      "âĢĿ": 590,
      "ouldĠ": 591,
      "ok": 592,
      "'s": 593,
      "lik": 594,
      "è¿Ļä¸ª": 595,
      "entĠ": 596,
      "å®ŀ": 597,
      "çĿ": 598,
      "?čĊ": 599,
      "è°": 600,
      "od": 601,
      "00": 602,
      "ct": 603,
      "pl": 604,
      "çĲ": 605,
      "ľ¨": 606,
      "æĽ": 607,
      "æŀľ": 608,
      "eop": 609,
      "um": 610,
      "rom": 611,
      "å¦Ĥ": 612,
      "ä¿": 613,
      "ä¸ĭ": 614,
      "çº": 615,
      "pro": 616,
      "ant": 617,
      "è´": 618,
      "sh": 619,
      "'reĠ": 620,
      "ig": 621,
      "ĠareĠ": 622,
      "ĠtheyĠ": 623,
      "Ġall": 624,
      "æ²¡": 625,
      "ect": 626,
      "ç»ı": 627,
      "lyĠ": 628,
      "æ´": 629,
      ",Ġb": 630,
      "and": 631,
      "åİ»": 632,
      "æľĢ": 633,
      "æ°": 634,
      "ä¹ĭ": 635,
      "æµ": 636,
      "res": 637,
      "éĻ": 638,
      "å±": 639,
      "veryĠ": 640,
      "çī©": 641,
      "inĠ": 642,
      "inĠtheĠ": 643,
      "åĽ½": 644,
      "çĿĢ": 645,
      "è¿ĺ": 646,
      "do": 647,
      "å¼Ģ": 648,
      "ĠAnd": 649,
      "éģĵ": 650,
      "beĠ": 651,
      "åĪĨ": 652,
      "ä»Ģ": 653,
      "å¥½": 654,
      "qu": 655,
      "åĢ": 656,
      "Ġä½Ĩ": 657,
      "con": 658,
      "åī": 659,
      "è¾": 660,
      "ev": 661,
      "ĠofĠ": 662,
      "per": 663,
      "ä»Ģä¹Ī": 664,
      "aus": 665,
      "can": 666,
      "åĵ": 667,
      "est": 668,
      "Ġåľ¨": 669,
      "ï¼ļ": 670,
      "è¿ĻäºĽ": 671,
      "ink": 672,
      "to": 673,
      "know": 674,
      "è¡Į": 675,
      "eĠtheĠ": 676,
      "ä»İ": 677,
      "éĹ®": 678,
      ",Ġand": 679,
      "y.čĊ": 680,
      "ï¼ŁčĊ": 681,
      "di": 682,
      "åĬ¨": 683,
      "çŁ¥": 684,
      "æĸ¹": 685,
      "łä¸º": 686,
      "è½": 687,
      "åĲĮ": 688,
      "se": 689,
      "we": 690,
      "å¸¸": 691,
      "Ġg": 692,
      "soĠ": 693,
      "è®©": 694,
      ",ĠtheĠ": 695,
      "ĠSoĠ": 696,
      "notĠ": 697,
      "èĢħ": 698,
      "éĿ¢": 699,
      ",Ġwh": 700,
      "è¢": 701,
      "ecaus": 702,
      "çķ": 703,
      "other": 704,
      "ingĠtoĠ": 705,
      "enc": 706,
      "éĿŀ": 707,
      "eopleĠ": 708,
      "æ³ķ": 709,
      "eseĠ": 710,
      "Ġä½ł": 711,
      "ght": 712,
      "æ¬": 713,
      "èµ·": 714,
      "åŁ": 715,
      "ç¾": 716,
      "\"čĊ": 717,
      "âĢĶ": 718,
      "è¶": 719,
      "å°±æĺ¯": 720,
      "æĽ´": 721,
      "ayĠ": 722,
      "åĬĽ": 723,
      "çĤ": 724,
      "æľº": 725,
      "wasĠ": 726,
      "som": 727,
      "åıĺ": 728,
      "y,Ġ": 729,
      "ç©": 730,
      "é¡": 731,
      "art": 732,
      "æĢ§": 733,
      "æĬĬ": 734,
      "ĠN": 735,
      "ä¾": 736,
      "è¢«": 737,
      "from": 738,
      "æĦı": 739,
      "æ²¡æľī": 740,
      "ich": 741,
      "éĹ´": 742,
      "ç®": 743,
      "é¢ĺ": 744,
      "der": 745,
      "Ġat": 746,
      "Ġcan": 747,
      "æŃ£": 748,
      "es.čĊ": 749,
      "ĠaboutĠ": 750,
      "year": 751,
      "åħ¶": 752,
      "æĮ": 753,
      "alĠ": 754,
      "andĠ": 755,
      "ere": 756,
      "ä¸ĸ": 757,
      "æīĢä»¥": 758,
      "å¤©": 759,
      "åīį": 760,
      "å§": 761,
      "ä½ĵ": 762,
      "ist": 763,
      "ustĠ": 764,
      "çİ°åľ¨": 765,
      "iveĠ": 766,
      "éľ": 767,
      "iv": 768,
      "Ġå®": 769,
      "pp": 770,
      "å½ĵ": 771,
      "act": 772,
      "å·¥": 773,
      ",ĠI": 774,
      "æĪĸ": 775,
      "sp": 776,
      "ĥı": 777,
      "è·": 778,
      "Ġthink": 779,
      "ĠY": 780,
      "enĠ": 781,
      "å°ı": 782,
      "edĠtoĠ": 783,
      "sĠofĠ": 784,
      "è¿Ľ": 785,
      "aĠ": 786,
      "çĤ¹": 787,
      "ain": 788,
      "ï¼ĮæĪĳ": 789,
      "areĠ": 790,
      "ghtĠ": 791,
      "Ġthem": 792,
      "Ġal": 793,
      "ç½": 794,
      "ç«": 795,
      "ĠasĠ": 796,
      "ç³": 797,
      "ot": 798,
      "ĠTheĠ": 799,
      "ang": 800,
      "ack": 801,
      "ĠH": 802,
      "éĩį": 803,
      "Ġar": 804,
      "etĠ": 805,
      "ep": 806,
      "èĦ": 807,
      "mor": 808,
      "çŃ": 809,
      "Ġas": 810,
      "çķĮ": 811,
      "myĠ": 812,
      "çŁ¥éģĵ": 813,
      "åħ³": 814,
      "ci": 815,
      "whatĠ": 816,
      "look": 817,
      "éĺ": 818,
      "çĲĨ": 819,
      "éĹ®é¢ĺ": 820,
      "ĠweĠ": 821,
      "youĠ": 822,
      "ç±": 823,
      "likeĠ": 824,
      "åĥı": 825,
      "æ¯Ķ": 826,
      "åıª": 827,
      "éĥ": 828,
      "çĽ¸": 829,
      "ç¬": 830,
      "åĮĸ": 831,
      "own": 832,
      "æĥħ": 833,
      "éļ": 834,
      "æģ": 835,
      "è§£": 836,
      "ĠWeĠ": 837,
      "æŃ¤": 838,
      "Ġwith": 839,
      "it'sĠ": 840,
      "ç»Ļ": 841,
      "çļĦäºº": 842,
      "how": 843,
      "ĠåĽ": 844,
      "ess": 845,
      "ä½ķ": 846,
      "ç¾İ": 847,
      "èī": 848,
      "ĠIt": 849,
      "'veĠ": 850,
      "justĠ": 851,
      "å°Ĩ": 852,
      "ä¸įæĺ¯": 853,
      "ĠtheĠs": 854,
      "¥¿": 855,
      "ĠWh": 856,
      "æķ°": 857,
      "ĠtheseĠ": 858,
      "ever": 859,
      "ä¿¡": 860,
      "over": 861,
      "éľĢ": 862,
      "æĦŁ": 863,
      "å®ļ": 864,
      "åħ¨": 865,
      "éĥ¨": 866,
      "çļĦæĹ": 867,
      "çľŁ": 868,
      "Ġåı": 869,
      "è¥¿": 870,
      "heĠ": 871,
      "was": 872,
      "ecauseĠ": 873,
      "ãĢģ": 874,
      "ust": 875,
      "peopleĠ": 876,
      "éķ": 877,
      "ĠSo": 878,
      ".\"čĊ": 879,
      "èĤ": 880,
      "ĠæīĢä»¥": 881,
      "ç¤": 882,
      "akeĠ": 883,
      "æľ¬": 884,
      "çĹ": 885,
      "ĠèĢĮ": 886,
      "'m": 887,
      "å§ĭ": 888,
      "åĢĻ": 889,
      "ä½¿": 890,
      "å·±": 891,
      "Ġtheir": 892,
      "å¿ĥ": 893,
      "ateĠ": 894,
      "Ġtr": 895,
      "ä¸ĸçķĮ": 896,
      "èĩªå·±": 897,
      "æı": 898,
      "--Ġ": 899,
      "ä¸İ": 900,
      "æį": 901,
      "Ġact": 902,
      "è¿Ļæł·": 903,
      "IĠ": 904,
      "fer": 905,
      "åº¦": 906,
      "iz": 907,
      "ĠButĠ": 908,
      "ach": 909,
      "ea": 910,
      "é£": 911,
      "çĶµ": 912,
      "Ġä»ĸä»¬": 913,
      "½ĵ": 914,
      "work": 915,
      "ĠéĤ£": 916,
      "è®¤": 917,
      "æĸ°": 918,
      "éĿŀå¸¸": 919,
      "Ġå®ĥ": 920,
      "erĠ": 921,
      "ough": 922,
      "so": 923,
      "çĻ": 924,
      "ph": 925,
      "Ġå°": 926,
      "ong": 927,
      "ä¸Ķ": 928,
      "æĹł": 929,
      "Ġè¿Ļæĺ¯": 930,
      "ind": 931,
      "è®¡": 932,
      "ĠthereĠ": 933,
      "uc": 934,
      "åĿ": 935,
      "âĻ": 936,
      "way": 937,
      "æ¯ı": 938,
      "ort": 939,
      "ç¨": 940,
      "wereĠ": 941,
      "ĠYou": 942,
      "ç³»": 943,
      "ä¸ĢäºĽ": 944,
      "éĢļ": 945,
      "ï¼ĮæĪĳä»¬": 946,
      "çļĦæĹ¶": 947,
      "eyĠ": 948,
      "end": 949,
      "ï¼ĮčĊ": 950,
      "ĠThisĠ": 951,
      ",Ġ\"": 952,
      "n'tĠ": 953,
      "Ġå¦Ĥ": 954,
      "éľĢè¦ģ": 955,
      "Ġabout": 956,
      "tĠofĠ": 957,
      "gr": 958,
      "ing.čĊ": 959,
      "åºĶ": 960,
      "ĠO": 961,
      "ç±»": 962,
      "cre": 963,
      "reallyĠ": 964,
      "æĺİ": 965,
      "ap": 966,
      "on'tĠ": 967,
      "çľĭåĪ°": 968,
      "æ´»": 969,
      "âĢĿčĊ": 970,
      "çļĦãĢĤčĊ": 971,
      "æ¸": 972,
      "å¼Ģå§ĭ": 973,
      "itt": 974,
      "ameĠ": 975,
      "éĩı": 976,
      "goingĠtoĠ": 977,
      "anĠ": 978,
      "çī¹": 979,
      "eĠthatĠ": 980,
      "eth": 981,
      "indĠ": 982,
      "éĽ": 983,
      "alk": 984,
      "uch": 985,
      "å£": 986,
      "éĢł": 987,
      "ound": 988,
      "å¼ı": 989,
      "å¹¶": 990,
      "çł": 991,
      "Ġtim": 992,
      "çĦ¶åĲİ": 993,
      "Ġof": 994,
      "not": 995,
      "Ġthey": 996,
      "ĠatĠ": 997,
      "åĪ¶": 998,
      "eĠofĠ": 999,
      "éķ¿": 1000,
      "æĸ¯": 1001,
      "å»": 1002,
      "ä½łä»¬": 1003,
      "ureĠ": 1004,
      "ly": 1005,
      "Ġå½ĵ": 1006,
      "å·²": 1007,
      "Ġthis": 1008,
      "ef": 1009,
      "ĠNow": 1010,
      "comp": 1011,
      "æŁ": 1012,
      "doĠ": 1013,
      "ey": 1014,
      "åħ¬": 1015,
      "é«": 1016,
      "ĠM": 1017,
      "èº": 1018,
      "sĠandĠ": 1019,
      "ĠwasĠ": 1020,
      "èģ": 1021,
      "ĠisĠ": 1022,
      "man": 1023,
      "è®¾": 1024,
      "çļĦæĺ¯": 1025,
      "worl": 1026,
      "è§ī": 1027,
      "omeĠ": 1028,
      "ä¸ľ": 1029,
      "åĬł": 1030,
      "æīĭ": 1031,
      "your": 1032,
      "imp": 1033,
      "åı¯èĥ½": 1034,
      "æ¬¡": 1035,
      "onĠtheĠ": 1036,
      "ç»ĵ": 1037,
      "happ": 1038,
      "éª": 1039,
      "Ġthen": 1040,
      "çĸ": 1041,
      "log": 1042,
      "æİ¥": 1043,
      "é«ĺ": 1044,
      "çĪ": 1045,
      "å¥¹": 1046,
      "èĬ": 1047,
      "uallyĠ": 1048,
      "èĥ": 1049,
      "ä¸¤": 1050,
      "ĠtoĠtheĠ": 1051,
      "Ġfor": 1052,
      "ĠItĠ": 1053,
      "new": 1054,
      "âĻ«": 1055,
      "ew": 1056,
      "ityĠ": 1057,
      "Ġå¦Ĥæŀľ": 1058,
      "sel": 1059,
      "ĠIn": 1060,
      "ud": 1061,
      "æĻ": 1062,
      "æīĢæľī": 1063,
      "çļĦĠ": 1064,
      "èº«": 1065,
      "Ġä½Ĩæĺ¯": 1066,
      "co": 1067,
      "åħ¥": 1068,
      "ĠIĠ": 1069,
      "ĠC": 1070,
      "Ġse": 1071,
      "åĪ©": 1072,
      "æľ¯": 1073,
      "è¡¨": 1074,
      "è°¢": 1075,
      "åĻ": 1076,
      "ob": 1077,
      "åŃ©": 1078,
      ",ĠbutĠ": 1079,
      "è®º": 1080,
      "oseĠ": 1081,
      "è®¸": 1082,
      "èĭ": 1083,
      "åĲĪ": 1084,
      "è¯Ŀ": 1085,
      "ure": 1086,
      "åĸ": 1087,
      "Ġthing": 1088,
      "es,Ġ": 1089,
      "ä»£": 1090,
      "å¢": 1091,
      "moreĠ": 1092,
      "ç§ĳ": 1093,
      "ä»¶": 1094,
      "sĠtoĠ": 1095,
      "when": 1096,
      "ild": 1097,
      "tr": 1098,
      "vi": 1099,
      "ast": 1100,
      "ç¨ĭ": 1101,
      "ç¡": 1102,
      "ĠaĠs": 1103,
      "çĲĥ": 1104,
      "Ġä»ĸ": 1105,
      "æ±": 1106,
      "åĽŀ": 1107,
      "ous": 1108,
      "ä¸Ģç§į": 1109,
      "çĽ®": 1110,
      "ign": 1111,
      "ä½į": 1112,
      "ç¬¬": 1113,
      "ment": 1114,
      "sĠthatĠ": 1115,
      "anc": 1116,
      "ean": 1117,
      "å»º": 1118,
      "Ġis": 1119,
      "str": 1120,
      "lif": 1121,
      "å±ķ": 1122,
      "äººä»¬": 1123,
      "éĴ": 1124,
      "ally": 1125,
      "ä¸ľè¥¿": 1126,
      "ä¸»": 1127,
      "Ġwor": 1128,
      "æıĲ": 1129,
      "get": 1130,
      "å·¥ä½ľ": 1131,
      "äº§": 1132,
      "ĠanĠ": 1133,
      "ĠtheĠf": 1134,
      "ble": 1135,
      "Ġæĺ¯": 1136,
      "Ġåħ": 1137,
      "è±": 1138,
      "ostĠ": 1139,
      "ï¼ĮĠæĪĳ": 1140,
      "çīĩ": 1141,
      "åĽł": 1142,
      "iffer": 1143,
      "åŁº": 1144,
      "ens": 1145,
      "åĻ¨": 1146,
      "oc": 1147,
      "èĦĳ": 1148,
      "åĽ¾": 1149,
      "å¤ĸ": 1150,
      "ä»»": 1151,
      "ä¸ļ": 1152,
      "Ġå¥": 1153,
      "ï¼ĮĠæĪĳä»¬": 1154,
      "aid": 1155,
      "æĶ¾": 1156,
      "ed.čĊ": 1157,
      "¹¶": 1158,
      "ĠtheĠm": 1159,
      "çļĦäºĭ": 1160,
      "å¥³": 1161,
      "had": 1162,
      "åıĹ": 1163,
      "ĠåĽłä¸º": 1164,
      "ç¥": 1165,
      "stĠ": 1166,
      "çļĦæĹ¶åĢĻ": 1167,
      "äºĨãĢĤčĊ": 1168,
      "çĽ´": 1169,
      "form": 1170,
      "ard": 1171,
      "ç»Ł": 1172,
      "ber": 1173,
      "ä»ħ": 1174,
      "çļĦæĸ": 1175,
      "Ħ¿": 1176,
      "wouldĠ": 1177,
      "hadĠ": 1178,
      "bo": 1179,
      "odĠ": 1180,
      "meĠ": 1181,
      "Ġå°±": 1182,
      "å®ĥä»¬": 1183,
      "åĨ³": 1184,
      "onĠ": 1185,
      "litt": 1186,
      "estĠ": 1187,
      "Ġæľī": 1188,
      "pr": 1189,
      "ater": 1190,
      "è§Ĥ": 1191,
      "e,": 1192,
      "å·²ç»ı": 1193,
      "åĳ¢": 1194,
      ",ĠweĠ": 1195,
      "è®¤ä¸º": 1196,
      "éĤ£äºĽ": 1197,
      "hasĠ": 1198,
      "will": 1199,
      "ub": 1200,
      "orĠ": 1201,
      "Ġdo": 1202,
      "ç©¶": 1203,
      "'sĠaĠ": 1204,
      "gre": 1205,
      "ç´": 1206,
      "åĨħ": 1207,
      "éĶ": 1208,
      "åĦ¿": 1209,
      "åıĬ": 1210,
      "çģ": 1211,
      "ank": 1212,
      "å¾Īå¤ļ": 1213,
      "ish": 1214,
      "âĢĶâĢĶ": 1215,
      "po": 1216,
      "è¯ķ": 1217,
      "æ¼": 1218,
      "ä¸ī": 1219,
      "ity": 1220,
      "å¤Ł": 1221,
      "ableĠ": 1222,
      "under": 1223,
      "æķĻ": 1224,
      "he": 1225,
      "forĠ": 1226,
      "å®Į": 1227,
      "it.čĊ": 1228,
      "çĹħ": 1229,
      "littleĠ": 1230,
      "åĮº": 1231,
      "åľº": 1232,
      "æĪĳçļĦ": 1233,
      "é©": 1234,
      "si": 1235,
      "æĢİ": 1236,
      "20": 1237,
      "ick": 1238,
      "ĠyouĠ": 1239,
      "è½¦": 1240,
      "usĠ": 1241,
      "ech": 1242,
      "back": 1243,
      "åĲĳ": 1244,
      "start": 1245,
      "å°ĳ": 1246,
      "Ġthere": 1247,
      ".Ġ": 1248,
      "æĶ¹": 1249,
      "åĪĽ": 1250,
      "byĠ": 1251,
      "å¤Ħ": 1252,
      "æľĽ": 1253,
      "æī¾": 1254,
      "Ġ--": 1255,
      "æ°´": 1256,
      "è¿Ĳ": 1257,
      "åĪ«": 1258,
      "åĩł": 1259,
      "ical": 1260,
      "ĠIt'sĠ": 1261,
      "ourĠ": 1262,
      "åįģ": 1263,
      "been": 1264,
      "her": 1265,
      "inter": 1266,
      "è±¡": 1267,
      "æĪĸèĢħ": 1268,
      "day": 1269,
      "æ¶": 1270,
      "much": 1271,
      "Ġthat'sĠ": 1272,
      "åĳĬ": 1273,
      "Ķç©¶": 1274,
      "bu": 1275,
      "å¸¦": 1276,
      "ĠmyĠ": 1277,
      "åıĳçİ°": 1278,
      "éŁ": 1279,
      "ä¸įåĲĮ": 1280,
      "ä¿Ŀ": 1281,
      "Ġper": 1282,
      "ult": 1283,
      "mo": 1284,
      "ineĠ": 1285,
      "happen": 1286,
      "è¯Ĩ": 1287,
      "è¿Ļæĺ¯": 1288,
      "ingĠtheĠ": 1289,
      "noĠ": 1290,
      "isĠaĠ": 1291,
      "ä»Ĭ": 1292,
      "Ġbe": 1293,
      "rough": 1294,
      "è¯¥": 1295,
      "Ġpro": 1296,
      "æ¡": 1297,
      "å¦Ĥæŀľ": 1298,
      "åĽłä¸º": 1299,
      "å°Ķ": 1300,
      "çĶ±": 1301,
      "æį®": 1302,
      "èī²": 1303,
      "åĲį": 1304,
      "çļĦæķ": 1305,
      "å½±": 1306,
      "Ġtw": 1307,
      "eas": 1308,
      "æĬĢ": 1309,
      "ip": 1310,
      "èĪ": 1311,
      "èĩ³": 1312,
      "every": 1313,
      "youĠcan": 1314,
      "IĠw": 1315,
      "åĵģ": 1316,
      "world": 1317,
      "çļĦä¸Ģ": 1318,
      "ç»Ħ": 1319,
      "lear": 1320,
      "ä¸ĩ": 1321,
      "åİŁ": 1322,
      "Ġag": 1323,
      "å¤ª": 1324,
      "Ġcom": 1325,
      "ï¼ĮĠä½Ĩ": 1326,
      "è§ģ": 1327,
      "int": 1328,
      "Ġçİ°åľ¨": 1329,
      "æĢĿ": 1330,
      "iesĠ": 1331,
      "è¾¾": 1332,
      "dis": 1333,
      "mak": 1334,
      "Ġyear": 1335,
      "Ġä¸į": 1336,
      "å¸Ĥ": 1337,
      "ĠactuallyĠ": 1338,
      "åıĳçĶŁ": 1339,
      "è§Ĩ": 1340,
      "è®²": 1341,
      "pre": 1342,
      "éļ¾": 1343,
      "åĽ½å®¶": 1344,
      "antĠtoĠ": 1345,
      "å¹³": 1346,
      "enceĠ": 1347,
      "ç¡®": 1348,
      "say": 1349,
      "Ġac": 1350,
      "just": 1351,
      "è¯´ï¼Į": 1352,
      "ass": 1353,
      "sĠin": 1354,
      "ç¦": 1355,
      "19": 1356,
      "ä¸Ģæł·": 1357,
      "differ": 1358,
      "èĻ": 1359,
      "car": 1360,
      "Ġch": 1361,
      "å²": 1362,
      "åĲĹ": 1363,
      "ies": 1364,
      "whoĠ": 1365,
      "æĺŁ": 1366,
      "let": 1367,
      "éŁ³": 1368,
      "çĶŁæ´»": 1369,
      "someth": 1370,
      "s,": 1371,
      "æ®": 1372,
      "bod": 1373,
      "par": 1374,
      "çļĦï¼Į": 1375,
      "éªĮ": 1376,
      "å¤´": 1377,
      "è¿ĺæľī": 1378,
      "000": 1379,
      "åĳ½": 1380,
      "kindĠ": 1381,
      "ould": 1382,
      "astĠ": 1383,
      "ug": 1384,
      "å¦": 1385,
      "éĩįè¦ģ": 1386,
      "econ": 1387,
      "cl": 1388,
      "æīį": 1389,
      "é¦": 1390,
      "10": 1391,
      "èį": 1392,
      "at'sĠ": 1393,
      "çĥ": 1394,
      "ĠTheyĠ": 1395,
      "æ»": 1396,
      "'mĠ": 1397,
      "pos": 1398,
      "stor": 1399,
      "antĠ": 1400,
      "åĨį": 1401,
      "åķ": 1402,
      "æľŁ": 1403,
      "åĲ¬": 1404,
      "yst": 1405,
      "chang": 1406,
      "çŃī": 1407,
      "åĪ°äºĨ": 1408,
      "ä¹Ĳ": 1409,
      "even": 1410,
      "åŃĺ": 1411,
      "åŃ©åŃĲ": 1412,
      "Ġå¤": 1413,
      "åħĭ": 1414,
      "ħ§": 1415,
      "urn": 1416,
      "åľ°æĸ¹": 1417,
      "æģ¯": 1418,
      "çļĦčĊ": 1419,
      "ĠthoseĠ": 1420,
      ",Ġwhich": 1421,
      "è¯ī": 1422,
      "ç¤º": 1423,
      "ä¹ī": 1424,
      "åŀ": 1425,
      "ç½ĳ": 1426,
      "è¿Ļç§į": 1427,
      "cal": 1428,
      "elyĠ": 1429,
      "ict": 1430,
      "åįķ": 1431,
      "br": 1432,
      "oundĠ": 1433,
      "irstĠ": 1434,
      "æº": 1435,
      "'ll": 1436,
      "Ġè¿ĻäºĽ": 1437,
      "sĠareĠ": 1438,
      "essĠ": 1439,
      "è®°": 1440,
      "¨¡": 1441,
      "ï¼Įä½ł": 1442,
      "æĭī": 1443,
      "ĠâĢľ": 1444,
      "ageĠ": 1445,
      "ä¾ĭ": 1446,
      "åħ¶ä»ĸ": 1447,
      "uct": 1448,
      "ĠaĠf": 1449,
      "ĠL": 1450,
      "èĲ": 1451,
      "Ġè¿Ļä¸ª": 1452,
      "ightĠ": 1453,
      "èµ·æĿ¥": 1454,
      "å½¢": 1455,
      "Ġtalk": 1456,
      "right": 1457,
      "æµ·": 1458,
      "æ£": 1459,
      "èµ°": 1460,
      "ä¼ł": 1461,
      "æīĵ": 1462,
      "each": 1463,
      "rain": 1464,
      "çĭ": 1465,
      "we'reĠ": 1466,
      "des": 1467,
      "seĠ": 1468,
      "ĠaĠm": 1469,
      "Ġcon": 1470,
      "cho": 1471,
      "illion": 1472,
      "ĠçĦ¶åĲİ": 1473,
      "self": 1474,
      "ãĢĤâĢĿčĊ": 1475,
      "aceĠ": 1476,
      "Ġre": 1477,
      "someĠ": 1478,
      "ĠBut": 1479,
      "æĪĳä»¬çļĦ": 1480,
      "ark": 1481,
      "éĢļè¿ĩ": 1482,
      "è¶Ĭ": 1483,
      "å¦Ĥä½ķ": 1484,
      "iteĠ": 1485,
      "äº¤": 1486,
      "æ°Ķ": 1487,
      "ition": 1488,
      "ç®¡": 1489,
      "ĠatĠtheĠ": 1490,
      "aw": 1491,
      "ether": 1492,
      "son": 1493,
      "ĠF": 1494,
      "æ°ĳ": 1495,
      "getĠ": 1496,
      "ï¼ĮĠèĢĮ": 1497,
      "cont": 1498,
      "éĻħ": 1499,
      "ener": 1500,
      "by": 1501,
      "¯¹": 1502,
      "éĥ½æĺ¯": 1503,
      "igh": 1504,
      "sid": 1505,
      "çłĶç©¶": 1506,
      "blem": 1507,
      "äºĮ": 1508,
      "æĮģ": 1509,
      "mer": 1510,
      "é¡¹": 1511,
      "æ·": 1512,
      "liv": 1513,
      "ç¤¾": 1514,
      "Ġyour": 1515,
      "ĠinĠtheĠ": 1516,
      "ç²": 1517,
      "æĸĩ": 1518,
      "åĬ©": 1519,
      "Ġthrough": 1520,
      "amp": 1521,
      "eng": 1522,
      "åĲĦ": 1523,
      "ç¾İåĽ½": 1524,
      "ĠâĻ«": 1525,
      "Ġaf": 1526,
      "èİ": 1527,
      "becauseĠ": 1528,
      "éĥ¨åĪĨ": 1529,
      "è®¾è®¡": 1530,
      "æķ´": 1531,
      "è¾¹": 1532,
      "ĠitĠ": 1533,
      "whereĠ": 1534,
      "å¿ħ": 1535,
      "èĥ½å¤Ł": 1536,
      "onlyĠ": 1537,
      "çļĦæĸ¹": 1538,
      "ĠofĠtheĠ": 1539,
      "Ġad": 1540,
      "é»": 1541,
      "èµĦ": 1542,
      "ĠaĠb": 1543,
      "ĠthatĠweĠ": 1544,
      "ystem": 1545,
      "çĬ": 1546,
      "ext": 1547,
      "Ġå¹¶": 1548,
      "éĢī": 1549,
      "de": 1550,
      "ĠP": 1551,
      "è£": 1552,
      "Ġam": 1553,
      "æĶ¿": 1554,
      "ç»Ĩ": 1555,
      "ãĢĤĠ": 1556,
      "ç¼": 1557,
      "åĲ§": 1558,
      "ans": 1559,
      "æĪĺ": 1560,
      "ric": 1561,
      "ä»»ä½ķ": 1562,
      "ĠD": 1563,
      "åŃĹ": 1564,
      "got": 1565,
      "ĠE": 1566,
      "hum": 1567,
      "tim": 1568,
      "Ġ\"": 1569,
      "couldĠ": 1570,
      "å¤į": 1571,
      "cent": 1572,
      "ledĠ": 1573,
      "ĠåĴĮ": 1574,
      "ä¸ºä»Ģä¹Ī": 1575,
      "åħĪ": 1576,
      "le.čĊ": 1577,
      "haveĠtoĠ": 1578,
      "ç«ĭ": 1579,
      "ç¥ŀ": 1580,
      "ower": 1581,
      "don'tĠ": 1582,
      "åĳĺ": 1583,
      "ä½¿çĶ¨": 1584,
      "åıį": 1585,
      "ĠtheĠb": 1586,
      "Ġtell": 1587,
      "åĳĬè¯ī": 1588,
      "è¿ĻéĩĮ": 1589,
      "ç®Ĺ": 1590,
      "æĤ": 1591,
      "down": 1592,
      "makeĠ": 1593,
      "ĠwhatĠ": 1594,
      "è´¨": 1595,
      "real": 1596,
      "idĠ": 1597,
      "ĠbeĠ": 1598,
      "åħī": 1599,
      "mon": 1600,
      "reeĠ": 1601,
      "Ġfrom": 1602,
      "ifĠyou": 1603,
      "æĶ¹åıĺ": 1604,
      "ĠAndĠI": 1605,
      "ĠåĲ": 1606,
      "mostĠ": 1607,
      "ç©º": 1608,
      "èģĶ": 1609,
      "äºļ": 1610,
      "eel": 1611,
      "ution": 1612,
      "æ¨¡": 1613,
      "ia": 1614,
      "å¾·": 1615,
      "edĠin": 1616,
      "rem": 1617,
      "ĠIĠw": 1618,
      "å¤§å®¶": 1619,
      "äººç±»": 1620,
      "ĠIf": 1621,
      "çº¦": 1622,
      "å®ī": 1623,
      "ä»¥åıĬ": 1624,
      "av": 1625,
      "Â·": 1626,
      "æĺ¯ä¸Ģä¸ª": 1627,
      "èĭ±": 1628,
      "å£°": 1629,
      "åĮ»": 1630,
      "çĮ": 1631,
      "ħäºĭ": 1632,
      "çĻ¾": 1633,
      "è·Ł": 1634,
      "aid,Ġ\"": 1635,
      "æºĲ": 1636,
      "iceĠ": 1637,
      "éĩĳ": 1638,
      "æľª": 1639,
      "ial": 1640,
      "everyĠ": 1641,
      "ï¼ĮĠåĽ": 1642,
      "ä¸įä¼ļ": 1643,
      "ing,Ġ": 1644,
      "'t": 1645,
      "æĿ¡": 1646,
      "off": 1647,
      "æµģ": 1648,
      "ousĠ": 1649,
      "äºĭå®ŀ": 1650,
      "ersĠ": 1651,
      "è°Ī": 1652,
      "part": 1653,
      "isĠtheĠ": 1654,
      "å¤§çļĦ": 1655,
      "éħ": 1656,
      "Ġä¹Ł": 1657,
      "åŀĭ": 1658,
      "èĢģ": 1659,
      "ĠaĠc": 1660,
      "Ġon": 1661,
      "çĪ±": 1662,
      "ight": 1663,
      "å¿«": 1664,
      "è¨": 1665,
      "æ¼Ķ": 1666,
      "estion": 1667,
      "æĢİä¹Ī": 1668,
      "å¸Į": 1669,
      "æĳ": 1670,
      "èĬ±": 1671,
      "vers": 1672,
      "è¿ľ": 1673,
      "è¨Ģ": 1674,
      "ä¸Ģèµ·": 1675,
      "æ³¨": 1676,
      "æµĭ": 1677,
      "Ġå¯¹": 1678,
      "long": 1679,
      "åİĨ": 1680,
      "å¼ł": 1681,
      "æĹ¶éĹ´": 1682,
      "edĠtheĠ": 1683,
      "50": 1684,
      "çº¿": 1685,
      "åĸľ": 1686,
      "pres": 1687,
      "è¿Ľè¡Į": 1688,
      "read": 1689,
      "e,ĠandĠ": 1690,
      "wayĠ": 1691,
      "é©¬": 1692,
      "eĠthat": 1693,
      "vid": 1694,
      "ail": 1695,
      "æĢ»": 1696,
      "ath": 1697,
      "hereĠ": 1698,
      "bleĠ": 1699,
      "åĪĩ": 1700,
      "Ġsp": 1701,
      "ä¸Ģä¸ĭ": 1702,
      "exper": 1703,
      "ä¸ªäºº": 1704,
      "Ġany": 1705,
      "çİ¯": 1706,
      "echno": 1707,
      "ingĠin": 1708,
      "å¸Ī": 1709,
      "fl": 1710,
      "è¯Ń": 1711,
      "ĠaĠlo": 1712,
      "Ġthey'reĠ": 1713,
      "bet": 1714,
      "hisĠ": 1715,
      "echnolog": 1716,
      "ä½łçļĦ": 1717,
      "è·¯": 1718,
      "åĳ¢ï¼ŁčĊ": 1719,
      "question": 1720,
      "é¡»": 1721,
      "ĠWell": 1722,
      "åıĪ": 1723,
      "comeĠ": 1724,
      "coun": 1725,
      "learn": 1726,
      "åħ·": 1727,
      "ĠpeopleĠ": 1728,
      "è½¬": 1729,
      "gra": 1730,
      "åı¦": 1731,
      "kindĠofĠ": 1732,
      "Ġthan": 1733,
      "è§īå¾Ĺ": 1734,
      "åı«": 1735,
      "what": 1736,
      "Ġtak": 1737,
      "itsĠ": 1738,
      "ç®Ģ": 1739,
      ",Ġyou": 1740,
      "æłĩ": 1741,
      "import": 1742,
      "ä¹¦": 1743,
      "'dĠ": 1744,
      "æĺ¾": 1745,
      "Ġdon'tĠ": 1746,
      "ç§ĳåŃ¦": 1747,
      "ç³»ç»Ł": 1748,
      "æ²»": 1749,
      "å¤±": 1750,
      "cor": 1751,
      "ĠthisĠisĠ": 1752,
      "ĠalsoĠ": 1753,
      "ĠtakeĠ": 1754,
      "underst": 1755,
      "æ¬¢": 1756,
      "atedĠ": 1757,
      "ĠåĪ": 1758,
      "ful": 1759,
      "è¿Ļä¸Ģ": 1760,
      "èĢĥ": 1761,
      "gu": 1762,
      "Ġå¥¹": 1763,
      "æŀģ": 1764,
      "ĠtwoĠ": 1765,
      "endĠ": 1766,
      "which": 1767,
      "æĪĲä¸º": 1768,
      "ĠWhatĠ": 1769,
      "çħ§": 1770,
      "åıĸ": 1771,
      "é¢Ĩ": 1772,
      "æĶ¶": 1773,
      "çļĦä¸ľè¥¿": 1774,
      "æ´²": 1775,
      "well": 1776,
      "Ġä¸Ģ": 1777,
      "cr": 1778,
      "s,ĠandĠ": 1779,
      "ĠæĿ¥": 1780,
      "ç¦»": 1781,
      "Ġwe": 1782,
      "Ġpl": 1783,
      "Ġst": 1784,
      "ä¸įèĥ½": 1785,
      "centĠ": 1786,
      "çļĦæĥ": 1787,
      "åı¸": 1788,
      "ĠtimeĠ": 1789,
      "ual": 1790,
      "åºĶè¯¥": 1791,
      "it's": 1792,
      "æŃ»": 1793,
      "did": 1794,
      "æľĪ": 1795,
      "iss": 1796,
      "sĠof": 1797,
      "äºĨčĊ": 1798,
      "å¸®": 1799,
      "ï¼ĮĠå°": 1800,
      "é£ŀ": 1801,
      "è¿ĳ": 1802,
      "é£Ł": 1803,
      "er.čĊ": 1804,
      "æŃ£åľ¨": 1805,
      "åı£": 1806,
      "ï¼ĮĠåĽłä¸º": 1807,
      "çĻ½": 1808,
      "ï¼ĮĠä½ł": 1809,
      "åĵį": 1810,
      "rightĠ": 1811,
      "ject": 1812,
      "ä¼Ĺ": 1813,
      "yĠtoĠ": 1814,
      "problem": 1815,
      "youĠknow": 1816,
      "ceĠ": 1817,
      "å¥ĩ": 1818,
      "ĠdoĠ": 1819,
      "æ®µ": 1820,
      ",000": 1821,
      "ä¿¡æģ¯": 1822,
      "ä½ı": 1823,
      "æŀĦ": 1824,
      "bl": 1825,
      "ï¼ĮĠå®": 1826,
      "toĠtheĠ": 1827,
      "å¿ħé¡»": 1828,
      "ation.čĊ": 1829,
      "veĠth": 1830,
      "å¡": 1831,
      "å¯¼": 1832,
      "mun": 1833,
      "need": 1834,
      ",Ġin": 1835,
      "åħĥ": 1836,
      "åĨµ": 1837,
      "è¶£": 1838,
      "å¸ĮæľĽ": 1839,
      "ull": 1840,
      "oup": 1841,
      "æ¡Ī": 1842,
      "ä¸Ģæ¬¡": 1843,
      "old": 1844,
      "çļĦäºĭæĥħ": 1845,
      "ĠThank": 1846,
      "å¢ĥ": 1847,
      "è¿ĺæĺ¯": 1848,
      "ĠtheirĠ": 1849,
      "ĠR": 1850,
      "ï¼Įåľ¨": 1851,
      "butĠ": 1852,
      "æĴ": 1853,
      "gan": 1854,
      "seeĠ": 1855,
      "å£«": 1856,
      "æĸĻ": 1857,
      "goĠ": 1858,
      "who": 1859,
      "æŁĲ": 1860,
      "vis": 1861,
      "anyĠ": 1862,
      "elp": 1863,
      "tĠof": 1864,
      "ff": 1865,
      "éĶĻ": 1866,
      "withĠ": 1867,
      "200": 1868,
      "mad": 1869,
      "arg": 1870,
      "åħ±": 1871,
      "Ġä»İ": 1872,
      "å¼º": 1873,
      "çĶŁçī©": 1874,
      "imag": 1875,
      "æļ": 1876,
      "łæŃ¤": 1877,
      "æŃ¥": 1878,
      "æľį": 1879,
      "ueĠ": 1880,
      "ç»Ń": 1881,
      "Ġåı¯": 1882,
      "åıªæĺ¯": 1883,
      "bodyĠ": 1884,
      "Ġafter": 1885,
      "ire": 1886,
      "bec": 1887,
      "äº²": 1888,
      "a.čĊ": 1889,
      "haveĠth": 1890,
      "ä¸ŃçļĦ": 1891,
      "oldĠ": 1892,
      "eĠthisĠ": 1893,
      "Ġsh": 1894,
      "Ġagain": 1895,
      "ĠandĠtheĠ": 1896,
      "Ġask": 1897,
      "éĽĨ": 1898,
      "Ġå¤§": 1899,
      "hav": 1900,
      "ren": 1901,
      "çĶ·": 1902,
      "çĶ»": 1903,
      "Ġmor": 1904,
      "Ġwork": 1905,
      "ï¼ĮĠåľ¨": 1906,
      "ular": 1907,
      "çĶļ": 1908,
      "show": 1909,
      "çļĦéĹ®é¢ĺ": 1910,
      "ectĠ": 1911,
      "ity.čĊ": 1912,
      "has": 1913,
      ",ĠbecauseĠ": 1914,
      "ä»Ĭå¤©": 1915,
      "Ġturn": 1916,
      "åĨĻ": 1917,
      "Ġè®©": 1918,
      ",ĠtheyĠ": 1919,
      "åŁİ": 1920,
      "call": 1921,
      "ros": 1922,
      "ĠseeĠ": 1923,
      "dec": 1924,
      "thing": 1925,
      "adĠ": 1926,
      "never": 1927,
      "atter": 1928,
      "?\"čĊ": 1929,
      "åĬŁ": 1930,
      "chool": 1931,
      "Ġåį": 1932,
      "Ġl": 1933,
      "gether": 1934,
      "human": 1935,
      "è´¹": 1936,
      "åħ³äºİ": 1937,
      "ingĠto": 1938,
      "è§Ĵ": 1939,
      ",Ġbut": 1940,
      "æ¶Ī": 1941,
      "vel": 1942,
      "çļĦæĦ": 1943,
      "exp": 1944,
      "manyĠ": 1945,
      "eĠthing": 1946,
      "æĬĢæľ¯": 1947,
      "æł¹": 1948,
      "ĠG": 1949,
      "åĸľæ¬¢": 1950,
      "goodĠ": 1951,
      ",ĠitĠ": 1952,
      "éĤ£ä¸ª": 1953,
      "sheĠ": 1954,
      "put": 1955,
      "Ġsom": 1956,
      "çª": 1957,
      "ĠæľĢ": 1958,
      "åĪļ": 1959,
      "und": 1960,
      "æĹ¥": 1961,
      "cour": 1962,
      "å®¹": 1963,
      "è®®": 1964,
      "æł¼": 1965,
      "Ġwhich": 1966,
      "ĠThereĠ": 1967,
      "dev": 1968,
      "ç¢": 1969,
      "ï¼ģ": 1970,
      "äºĴ": 1971,
      "ä¹ł": 1972,
      "..": 1973,
      "åħ¬åı¸": 1974,
      ",ĠthatĠ": 1975,
      "Ġå¾": 1976,
      "å®¤": 1977,
      "æĮĩ": 1978,
      "è¶ħ": 1979,
      "ck": 1980,
      "useĠ": 1981,
      "å¸ĥ": 1982,
      "éĵ": 1983,
      "e-": 1984,
      "äºī": 1985,
      "vir": 1986,
      "duc": 1987,
      "è¯ģ": 1988,
      "ç§°": 1989,
      "ç»´": 1990,
      "ĠThey": 1991,
      "å²ģ": 1992,
      "åĽĽ": 1993,
      "ĠWe": 1994,
      "è°¢è°¢": 1995,
      "Ġther": 1996,
      "åĩºæĿ¥": 1997,
      "çĶļèĩ³": 1998,
      "gotĠ": 1999,
      "äºĨä¸Ģä¸ª": 2000,
      "Ch": 2001,
      "sĠa": 2002,
      "ç¤¾ä¼ļ": 2003,
      "çĶŁåĳ½": 2004,
      "ĠåĽłæŃ¤": 2005,
      "æĿĥ": 2006,
      "é¦ĸ": 2007,
      "æĽ¾": 2008,
      "äºĨä¸Ģ": 2009,
      "è¿Ļä¹Ī": 2010,
      "åıĳå±ķ": 2011,
      "Ġä¸Ģä¸ª": 2012,
      "çļĦåľ°æĸ¹": 2013,
      "ĠThisĠisĠ": 2014,
      "aryĠ": 2015,
      "åĳ¨": 2016,
      "ought": 2017,
      "ion.čĊ": 2018,
      "æµİ": 2019,
      "ï¼ĮĠå®ĥ": 2020,
      "atch": 2021,
      "å¤ĩ": 2022,
      "ĠæĪĳæĥ³": 2023,
      "ä¹Łæĺ¯": 2024,
      "åĵª": 2025,
      "ç»Ī": 2026,
      "num": 2027,
      "ï¼ĮĠä»ĸä»¬": 2028,
      "åħ´": 2029,
      "does": 2030,
      "åŁŁ": 2031,
      "åĶ": 2032,
      "alth": 2033,
      "åįĥ": 2034,
      "ä¹ĭåĲİ": 2035,
      "differentĠ": 2036,
      "ĠOn": 2037,
      "ng": 2038,
      "éĢŁ": 2039,
      "ian": 2040,
      "äºĭå®ŀä¸Ĭ": 2041,
      "ä¾¿": 2042,
      "haveĠa": 2043,
      "æ±Ĥ": 2044,
      "peop": 2045,
      "å°¼": 2046,
      "ä¾Ľ": 2047,
      "oll": 2048,
      "tri": 2049,
      "creat": 2050,
      "åŃĺåľ¨": 2051,
      "mean": 2052,
      "30": 2053,
      "è§£åĨ³": 2054,
      "èĤ²": 2055,
      "ï¼ī": 2056,
      "port": 2057,
      "éĻħä¸Ĭ": 2058,
      "omen": 2059,
      "lim": 2060,
      "åĪĽéĢł": 2061,
      "å¾ĹåĪ°": 2062,
      "åıĭ": 2063,
      "ä»·": 2064,
      "Ġaround": 2065,
      "cer": 2066,
      "æķĪ": 2067,
      "mentĠ": 2068,
      "ä½ľä¸º": 2069,
      "ĠallĠtheĠ": 2070,
      "åĲĹï¼ŁčĊ": 2071,
      "æĽ´å¤ļ": 2072,
      "bas": 2073,
      "nat": 2074,
      "ĠaĠt": 2075,
      "ç»ıæµİ": 2076,
      "å±Ĥ": 2077,
      "ĠAndĠtheĠ": 2078,
      "æĲ": 2079,
      "ĠthatĠtheĠ": 2080,
      "æĺ¯åľ¨": 2081,
      "åĩĨ": 2082,
      "still": 2083,
      "çĸĹ": 2084,
      "esĠandĠ": 2085,
      "ĠanyĠ": 2086,
      "elop": 2087,
      "ç»ĩ": 2088,
      "çľŁæŃ£": 2089,
      "ï¼Ī": 2090,
      "åĢ¼": 2091,
      "äººçļĦ": 2092,
      "ĠHeĠ": 2093,
      "ed,Ġ": 2094,
      "ĠinĠ": 2095,
      "ä¼¼": 2096,
      "au": 2097,
      "plan": 2098,
      "examp": 2099,
      "ï¼Įè¿Ļ": 2100,
      "ED": 2101,
      "æĸŃ": 2102,
      "ç¾¤": 2103,
      "firstĠ": 2104,
      "å½±åĵį": 2105,
      "hear": 2106,
      "éļı": 2107,
      "æ·±": 2108,
      "ĠtoĠbeĠ": 2109,
      "æľīä¸Ģä¸ª": 2110,
      "lifeĠ": 2111,
      "å¼ķ": 2112,
      "è°ĥ": 2113,
      "äºĨè§£": 2114,
      "build": 2115,
      "ä¸ĭæĿ¥": 2116,
      "éĴ±": 2117,
      "mall": 2118,
      "ĠcouldĠ": 2119,
      "Ġå¦Ĥæŀľä½ł": 2120,
      "wr": 2121,
      "In": 2122,
      "ser": 2123,
      "ä¹İ": 2124,
      "æ¯Ķå¦Ĥ": 2125,
      "ism": 2126,
      "çľ¼": 2127,
      "Ġåħ¶": 2128,
      "olution": 2129,
      "want": 2130,
      "forĠtheĠ": 2131,
      "å¥½çļĦ": 2132,
      "az": 2133,
      "ron": 2134,
      "meric": 2135,
      "æ¸¸": 2136,
      "æķ°æį®": 2137,
      "Ġanother": 2138,
      "gen": 2139,
      "Ġå®ĥä»¬": 2140,
      "design": 2141,
      "fect": 2142,
      "tw": 2143,
      "è¯·": 2144,
      "ç½®": 2145,
      "high": 2146,
      "åį°": 2147,
      "äºĶ": 2148,
      "ç»ĵæŀľ": 2149,
      "inv": 2150,
      "æľºåĻ¨": 2151,
      "è£ħ": 2152,
      "éĤ£éĩĮ": 2153,
      "é£İ": 2154,
      "åĬ¡": 2155,
      "æĭ©": 2156,
      "éĤ£ä¹Ī": 2157,
      "ingĠaĠ": 2158,
      "reas": 2159,
      "we'veĠ": 2160,
      "å®Įåħ¨": 2161,
      "ä¸ºäºĨ": 2162,
      "ç«Ļ": 2163,
      "ĠèĢĮä¸Ķ": 2164,
      "é¼": 2165,
      "icĠ": 2166,
      "è§Ħ": 2167,
      "æĭ¥": 2168,
      "å·´": 2169,
      "åį´": 2170,
      "needĠtoĠ": 2171,
      "èĬĤ": 2172,
      "bab": 2173,
      "æĺĵ": 2174,
      "stud": 2175,
      "yp": 2176,
      "ris": 2177,
      "Ġtechnolog": 2178,
      "Ġhow": 2179,
      "Ġwas": 2180,
      "âĻ«ĠâĻ«": 2181,
      "æĥ³è¦ģ": 2182,
      "ood": 2183,
      "å¤§èĦĳ": 2184,
      "åĪĻ": 2185,
      "thingĠ": 2186,
      "æĬ¤": 2187,
      "sur": 2188,
      "æĿĤ": 2189,
      "ï¼ĮĠåı": 2190,
      "é¢Ħ": 2191,
      "interest": 2192,
      "ĠJ": 2193,
      "cess": 2194,
      "ĠaĠw": 2195,
      "ä¸ĢçĽ´": 2196,
      "åĳ³": 2197,
      "idea": 2198,
      "ï¼ļâĢľ": 2199,
      ",ĠaĠ": 2200,
      "èħ": 2201,
      "artĠ": 2202,
      "å¿µ": 2203,
      "æ¯į": 2204,
      "dat": 2205,
      "power": 2206,
      "åºķ": 2207,
      "Ġè¿Ļå°±æĺ¯": 2208,
      "åĨ³å®ļ": 2209,
      "¿Ģ": 2210,
      "ek": 2211,
      "ingĠon": 2212,
      "kid": 2213,
      "reat": 2214,
      "help": 2215,
      "Ġ--Ġ": 2216,
      "çļĦè¯Ŀ": 2217,
      "ĠYouĠ": 2218,
      "æĿ¥è¯´": 2219,
      "åıĤ": 2220,
      "æħ": 2221,
      "æ¸ħ": 2222,
      ",ĠandĠI": 2223,
      "å®ŀéªĮ": 2224,
      "è¿ĩåİ»": 2225,
      "èĩªå·±çļĦ": 2226,
      "ys": 2227,
      "big": 2228,
      "æĪ¿": 2229,
      "room": 2230,
      "çĬ¶": 2231,
      "åĲ¦": 2232,
      "è¶³": 2233,
      "lastĠ": 2234,
      "tyĠ": 2235,
      "éĢīæĭ©": 2236,
      "St": 2237,
      "ä»ĸä»¬çļĦ": 2238,
      "worldĠ": 2239,
      "è®¸å¤ļ": 2240,
      "ç®Ģåįķ": 2241,
      "æĢģ": 2242,
      "çľĭçľĭ": 2243,
      "oneĠofĠtheĠ": 2244,
      "Ġup": 2245,
      "å¢ŀ": 2246,
      "ç»Ħç»ĩ": 2247,
      "ingĠthatĠ": 2248,
      "eg": 2249,
      "yĠandĠ": 2250,
      "åı°": 2251,
      "tain": 2252,
      "you'reĠ": 2253,
      "light": 2254,
      "æİ§": 2255,
      "å¨": 2256,
      "somethingĠ": 2257,
      "sĠtheĠ": 2258,
      "çİĩ": 2259,
      "ldĠ": 2260,
      "ĠthreeĠ": 2261,
      "æŀĹ": 2262,
      "åı²": 2263,
      "èīº": 2264,
      "ĠpercentĠ": 2265,
      "é»ĳ": 2266,
      "ally,Ġ": 2267,
      "çĽ¸ä¿¡": 2268,
      "åŁİå¸Ĥ": 2269,
      "äº¿": 2270,
      "åĮħ": 2271,
      "æĺ¯æĪĳ": 2272,
      "æĹ¶åĢĻ": 2273,
      "ä¸¤ä¸ª": 2274,
      "Ġfact": 2275,
      "åł": 2276,
      "å¸®åĬ©": 2277,
      "èĩ´": 2278,
      "åĬŀ": 2279,
      "æľīä¸Ģ": 2280,
      "æ»¡": 2281,
      "èİ·": 2282,
      "fromĠtheĠ": 2283,
      "le,Ġ": 2284,
      "éĺ¿": 2285,
      "ä¸ĵ": 2286,
      "Un": 2287,
      "but": 2288,
      "ä¸ĬçļĦ": 2289,
      "èĥŀ": 2290,
      "plac": 2291,
      "éĺŁ": 2292,
      "aveĠ": 2293,
      "ĠWhen": 2294,
      "sci": 2295,
      "irst": 2296,
      "äºĭæĥħ": 2297,
      "ä»¤": 2298,
      "Ġmean": 2299,
      "dayĠ": 2300,
      "æĭ¿": 2301,
      "ardĠ": 2302,
      "rel": 2303,
      "ï¼ĮĠè¿Ļ": 2304,
      "pon": 2305,
      "ï¼ĮĠå°±": 2306,
      "åĬ¨çī©": 2307,
      "ä»ħä»ħ": 2308,
      "person": 2309,
      "weĠcan": 2310,
      "çĹĩ": 2311,
      "Ġor": 2312,
      "èı": 2313,
      "row": 2314,
      "Ġç¬¬": 2315,
      "fin": 2316,
      "å¾®": 2317,
      "å¦ĤæŃ¤": 2318,
      "çİ¯å¢ĥ": 2319,
      "ĠIt's": 2320,
      "æ¿Ģ": 2321,
      "å¹²": 2322,
      "him": 2323,
      "æĺ¯æĪĳä»¬": 2324,
      "è¿ĩç¨ĭ": 2325,
      "ç»Ŀ": 2326,
      "çİ©": 2327,
      "ific": 2328,
      "ä¹ĭåīį": 2329,
      "ĠéĤ£ä¹Ī": 2330,
      "çľŁçļĦ": 2331,
      "é²": 2332,
      "éĹ¨": 2333,
      "tingĠ": 2334,
      "run": 2335,
      "giveĠ": 2336,
      "æŃ¢": 2337,
      "æĿ¥èĩª": 2338,
      "Ġåİ": 2339,
      "åºľ": 2340,
      "æŁ¥": 2341,
      "ually": 2342,
      "ileĠ": 2343,
      "ĠThatĠ": 2344,
      "é¡¹çĽ®": 2345,
      "uni": 2346,
      "ĠHow": 2347,
      "ç²¾": 2348,
      "ï¼Įä»ĸä»¬": 2349,
      "wantĠtoĠ": 2350,
      "befor": 2351,
      ",ĠtoĠ": 2352,
      "book": 2353,
      "åĪ»": 2354,
      "åĽ´": 2355,
      "ĠaĠlittleĠ": 2356,
      "Ġyou.čĊ": 2357,
      "ç½Ĺ": 2358,
      "çļĦæĸ¹å¼ı": 2359,
      "100": 2360,
      "pol": 2361,
      "äº§çĶŁ": 2362,
      "wer": 2363,
      "entsĠ": 2364,
      "æ¤": 2365,
      "Ġwill": 2366,
      "æĦıè¯Ĩ": 2367,
      "hap": 2368,
      "èį¯": 2369,
      "coll": 2370,
      "anceĠ": 2371,
      "15": 2372,
      "Ġso": 2373,
      "è½»": 2374,
      "ke": 2375,
      "ä»ĸçļĦ": 2376,
      "extĠ": 2377,
      ",ĠandĠtheĠ": 2378,
      "ner": 2379,
      "åķĨ": 2380,
      "Ġæ¯ı": 2381,
      "å°±ä¼ļ": 2382,
      "ç»Ĩèĥŀ": 2383,
      "net": 2384,
      "ç§»": 2385,
      "ä¸įçŁ¥éģĵ": 2386,
      "my": 2387,
      "selv": 2388,
      "æł¡": 2389,
      "æĬķ": 2390,
      "cep": 2391,
      "ï¼Įä½Ĩ": 2392,
      "Ġtra": 2393,
      "ship": 2394,
      "è¿ŀ": 2395,
      "stu": 2396,
      "ent.čĊ": 2397,
      "econom": 2398,
      "rat": 2399,
      "struct": 2400,
      "éĻ©": 2401,
      "ili": 2402,
      "å¹´åīį": 2403,
      "earch": 2404,
      "soci": 2405,
      "ubl": 2406,
      "åĽ¢": 2407,
      "esĠofĠ": 2408,
      "Ġwhat": 2409,
      "good": 2410,
      "éĻ¤": 2411,
      "ç´ł": 2412,
      "ecauseĠth": 2413,
      "æī¾åĪ°": 2414,
      "ĠsomeĠ": 2415,
      "madeĠ": 2416,
      "ĠThat'sĠ": 2417,
      "olog": 2418,
      "çļĦæĶ": 2419,
      "ĠAndĠthen": 2420,
      "ç¬ĳ": 2421,
      "ĠaboutĠtheĠ": 2422,
      "ä½İ": 2423,
      "cap": 2424,
      "æĬ¥": 2425,
      "air": 2426,
      "cover": 2427,
      "fric": 2428,
      "sĠthat": 2429,
      "åı·": 2430,
      "æķ´ä¸ª": 2431,
      "ï¼ĮĠå¹¶": 2432,
      "ĠthingsĠ": 2433,
      "å¾ħ": 2434,
      "e.": 2435,
      "å¯Ĩ": 2436,
      "ĠtheĠsameĠ": 2437,
      ",ĠthisĠ": 2438,
      "çºª": 2439,
      "rop": 2440,
      "æľªæĿ¥": 2441,
      "mov": 2442,
      "ĠmoreĠ": 2443,
      "èīºæľ¯": 2444,
      "æĥĬ": 2445,
      "Ġå¥½": 2446,
      "bor": 2447,
      "enti": 2448,
      "some": 2449,
      "ies.čĊ": 2450,
      "Ġit": 2451,
      "é±": 2452,
      "ä¹ĭéĹ´": 2453,
      "calledĠ": 2454,
      "èĮ": 2455,
      "experi": 2456,
      "å¯Į": 2457,
      "lin": 2458,
      "çŃĶ": 2459,
      "æ¦Ĥ": 2460,
      "æķħäºĭ": 2461,
      "Ġher": 2462,
      "feel": 2463,
      "å¾Ģ": 2464,
      "Ġtogether": 2465,
      "æľĭ": 2466,
      "esĠthatĠ": 2467,
      "ç»ľ": 2468,
      "ĠallĠ": 2469,
      "é±¼": 2470,
      "icallyĠ": 2471,
      "land": 2472,
      "èĩªçĦ¶": 2473,
      "Ġéĥ½": 2474,
      "ä¹ĭä¸Ģ": 2475,
      "number": 2476,
      "ĠaĠh": 2477,
      "lob": 2478,
      ",\"": 2479,
      ",ĠwhatĠ": 2480,
      "è¿Ļæł·çļĦ": 2481,
      "e?čĊ": 2482,
      "riv": 2483,
      "åıĺå¾Ĺ": 2484,
      "è¯»": 2485,
      "withĠtheĠ": 2486,
      "low": 2487,
      "é¥": 2488,
      "æĹłæ³ķ": 2489,
      "ingĠandĠ": 2490,
      "å¯Ł": 2491,
      "æľĭåıĭ": 2492,
      "äº«": 2493,
      "ç´¢": 2494,
      "æĭ¥æľī": 2495,
      "min": 2496,
      "å½ķ": 2497,
      "éĻ¢": 2498,
      "Ġä½łä»¬": 2499,
      "ildren": 2500,
      "ĠwouldĠ": 2501,
      "Ġdid": 2502,
      "sol": 2503,
      "æĶ¯": 2504,
      "ç±³": 2505,
      "Ġå¾Ī": 2506,
      "sĠ--": 2507,
      "äºĨï¼Į": 2508,
      "ä¸¾": 2509,
      "åįĬ": 2510,
      "åĩ»": 2511,
      "å®³": 2512,
      "çļĦæĬ": 2513,
      "elect": 2514,
      "æĸ¹éĿ¢": 2515,
      "formation": 2516,
      "ä¾ĭåŃĲ": 2517,
      "ele": 2518,
      "ä¹°": 2519,
      ",Ġwhen": 2520,
      "æ¢": 2521,
      "åĪĴ": 2522,
      "æĥ³è±¡": 2523,
      "sĠofĠtheĠ": 2524,
      "los": 2525,
      "eĠthis": 2526,
      "Ġget": 2527,
      "larg": 2528,
      ",ĠIĠ": 2529,
      "Ġthere'sĠ": 2530,
      "med": 2531,
      "ifĠweĠ": 2532,
      "beingĠ": 2533,
      "TED": 2534,
      "organ": 2535,
      "åĪĹ": 2536,
      "èĥ½åĬĽ": 2537,
      "ween": 2538,
      "æĹ©": 2539,
      "Ġwhen": 2540,
      "icalĠ": 2541,
      "isĠthatĠ": 2542,
      "I'm": 2543,
      "çŃĳ": 2544,
      "åİŁåĽł": 2545,
      "duct": 2546,
      "èľ": 2547,
      "pt": 2548,
      "understand": 2549,
      "æĶ¿åºľ": 2550,
      "llar": 2551,
      "å¹¸": 2552,
      "çĥŃ": 2553,
      "reason": 2554,
      "ld": 2555,
      "ure.čĊ": 2556,
      "lie": 2557,
      "åį¡": 2558,
      "liveĠ": 2559,
      "unt": 2560,
      "play": 2561,
      "æĢİæł·": 2562,
      "eĠandĠ": 2563,
      "å·¨": 2564,
      "cit": 2565,
      "don": 2566,
      "Ġåıª": 2567,
      "Ġå¹¶ä¸Ķ": 2568,
      "çļĦæķ°": 2569,
      "æĪı": 2570,
      "Ġter": 2571,
      "ĠaĠp": 2572,
      "æĦ¿": 2573,
      "cas": 2574,
      "ĠThere": 2575,
      "çŁ³": 2576,
      "graph": 2577,
      "æĸ¹å¼ı": 2578,
      "è®©æĪĳ": 2579,
      "åıĺåĮĸ": 2580,
      "commun": 2581,
      "æıĲä¾Ľ": 2582,
      "ableĠtoĠ": 2583,
      ",ĠasĠ": 2584,
      "ember": 2585,
      "çļĦæł": 2586,
      "è¿ĲåĬ¨": 2587,
      "giv": 2588,
      "éĩĬ": 2589,
      "greatĠ": 2590,
      "ï¼Įå¦Ĥæŀľ": 2591,
      ",Ġor": 2592,
      "æĺ¯ä»Ģä¹Ī": 2593,
      "åħ°": 2594,
      "Ġtrans": 2595,
      "çļĦä¸Ģä¸ª": 2596,
      "oughtĠ": 2597,
      "didĠ": 2598,
      "æ¯Ĵ": 2599,
      "develop": 2600,
      "ix": 2601,
      "yingĠtoĠ": 2602,
      "åĭ": 2603,
      "ç¿": 2604,
      "ĠI'mĠ": 2605,
      "ĠIĠwasĠ": 2606,
      "æİ¨": 2607,
      "ingĠwith": 2608,
      "æĺ¯ä¸ª": 2609,
      "af": 2610,
      "uck": 2611,
      "lef": 2612,
      "sĠago": 2613,
      "bi": 2614,
      "eer": 2615,
      "fic": 2616,
      "edĠto": 2617,
      "equ": 2618,
      "çı": 2619,
      "esĠtoĠ": 2620,
      "Ġè°¢è°¢": 2621,
      "å¯¹äºİ": 2622,
      "åģ¥": 2623,
      "fromĠ": 2624,
      "å·®": 2625,
      "NA": 2626,
      "å¯»": 2627,
      "ĠI'm": 2628,
      "è¡Įä¸º": 2629,
      "å¹¶ä¸į": 2630,
      "è¯į": 2631,
      "ofĠcour": 2632,
      "vern": 2633,
      "çģ«": 2634,
      "cur": 2635,
      "ress": 2636,
      "çļĦæ¯": 2637,
      "çªģ": 2638,
      "eadĠ": 2639,
      "better": 2640,
      "kill": 2641,
      "yourĠ": 2642,
      "dr": 2643,
      "oryĠ": 2644,
      "åº·": 2645,
      "å±ķç¤º": 2646,
      "sĠinĠtheĠ": 2647,
      "æĺ¯ä¸Ģ": 2648,
      "oodĠ": 2649,
      "éĿŀæ´²": 2650,
      "Ġthes": 2651,
      "nextĠ": 2652,
      "ĠwhoĠ": 2653,
      "'sĠtheĠ": 2654,
      "red": 2655,
      "æĪĲåĬŁ": 2656,
      "itĠwasĠ": 2657,
      "ret": 2658,
      "dition": 2659,
      "govern": 2660,
      "é¸": 2661,
      "alf": 2662,
      "ä¸ĢçĤ¹": 2663,
      "åģľ": 2664,
      "è°ģ": 2665,
      "didn'tĠ": 2666,
      "esĠin": 2667,
      "eat": 2668,
      "ï¼ŁâĢĿčĊ": 2669,
      "spec": 2670,
      "è®¡ç®Ĺ": 2671,
      "n't": 2672,
      "åľ°çĲĥ": 2673,
      "nect": 2674,
      "æ¥": 2675,
      "éŁ³ä¹Ĳ": 2676,
      "Ġthem.čĊ": 2677,
      "åĲĥ": 2678,
      "ĠAndĠsoĠ": 2679,
      "åħ³ç³»": 2680,
      "a,Ġ": 2681,
      "putĠ": 2682,
      "open": 2683,
      "ĠAndĠweĠ": 2684,
      "enough": 2685,
      "energ": 2686,
      "ide": 2687,
      "çº§": 2688,
      "gin": 2689,
      "Ġtri": 2690,
      "fac": 2691,
      "gener": 2692,
      "sor": 2693,
      "éĢĤ": 2694,
      "åģļçļĦ": 2695,
      "Ġå°±æĺ¯": 2696,
      "I'mĠ": 2697,
      "åŃ¦å®¶": 2698,
      "éĴŁ": 2699,
      "ï¼ĮĠçĦ¶åĲİ": 2700,
      "possi": 2701,
      "ĠåĨ": 2702,
      "aybeĠ": 2703,
      "partic": 2704,
      "lead": 2705,
      "comput": 2706,
      "mod": 2707,
      "evenĠ": 2708,
      "Ġatt": 2709,
      "sĠand": 2710,
      ",ĠthereĠ": 2711,
      "ideĠ": 2712,
      "respon": 2713,
      "èĲ½": 2714,
      "ĠæĪĸèĢħ": 2715,
      "åħ¨çĲĥ": 2716,
      ",Ġit'sĠ": 2717,
      "å®¢": 2718,
      "æĸ°çļĦ": 2719,
      "Ġtoday": 2720,
      "view": 2721,
      "doesn'tĠ": 2722,
      ",ĠsoĠ": 2723,
      "åº§": 2724,
      "åĿĲ": 2725,
      "wher": 2726,
      "æİĴ": 2727,
      "here": 2728,
      "waysĠ": 2729,
      "Ń¦": 2730,
      "ĠanĠin": 2731,
      "12": 2732,
      "ï¼ĮèĢĮ": 2733,
      "itedĠ": 2734,
      "çĲĨè§£": 2735,
      "ä»½": 2736,
      "ital": 2737,
      "å»ºçŃĳ": 2738,
      "eĠthem": 2739,
      "fam": 2740,
      "sup": 2741,
      "è®©æĪĳä»¬": 2742,
      "æĭį": 2743,
      "Ġother": 2744,
      "åŃ¦ä¹ł": 2745,
      "val": 2746,
      "è¿°": 2747,
      "è®¨": 2748,
      "æİ¢": 2749,
      "çĶµèĦĳ": 2750,
      "éº": 2751,
      "40": 2752,
      "Ġè¿ĺæľī": 2753,
      "riend": 2754,
      "ĠasĠaĠ": 2755,
      "èĽ": 2756,
      "Ġäºİ": 2757,
      "çļĦæķħäºĭ": 2758,
      "ather": 2759,
      "ouldn'tĠ": 2760,
      "èļ": 2761,
      "canĠ": 2762,
      "aut": 2763,
      "ç¾İåħĥ": 2764,
      "ly,Ġ": 2765,
      "startedĠ": 2766,
      "ĠYouĠcan": 2767,
      "ç½ĳç»ľ": 2768,
      "ï¼Įå½ĵ": 2769,
      "ari": 2770,
      "ç§ĳæĬĢ": 2771,
      "Ġbet": 2772,
      "us.čĊ": 2773,
      "å¹¿": 2774,
      "çļĦç¬": 2775,
      "grow": 2776,
      "imal": 2777,
      "Ġthat.čĊ": 2778,
      "è¾ĥ": 2779,
      "18": 2780,
      "ĠåĲĮ": 2781,
      "sy": 2782,
      "æľĢåĲİ": 2783,
      "çļĦæĦı": 2784,
      "e'sĠ": 2785,
      "tĠofĠtheĠ": 2786,
      "åľŁ": 2787,
      "åĽ°": 2788,
      "åŃ¦çĶŁ": 2789,
      ",ĠandĠthen": 2790,
      "çļĦæĥħ": 2791,
      "æĪĲäºĨ": 2792,
      ",ĠandĠweĠ": 2793,
      "ç»ıåİĨ": 2794,
      "æĪĳæĥ³": 2795,
      "cameĠ": 2796,
      "å±±": 2797,
      "åįļ": 2798,
      "æĻ®": 2799,
      "ï¼Įå®ĥ": 2800,
      "Ġè¿Ļæł·": 2801,
      "expl": 2802,
      "åĲĮæł·": 2803,
      "eter": 2804,
      "çļĦï¼ĮĠ": 2805,
      "çļĦæĢ": 2806,
      "job": 2807,
      "Ġdis": 2808,
      "iec": 2809,
      "ingĠfor": 2810,
      "Ġä½łåı¯ä»¥": 2811,
      "60": 2812,
      "far": 2813,
      "ĠIĠthink": 2814,
      "ash": 2815,
      "sum": 2816,
      "éĻį": 2817,
      "åŁºåĽł": 2818,
      "beenĠ": 2819,
      "ĠgetĠ": 2820,
      "ten": 2821,
      ":Ġ": 2822,
      "åģĩ": 2823,
      "usin": 2824,
      "ä¹Łè®¸": 2825,
      "æĬĬå®ĥ": 2826,
      "Ġå½ĵçĦ¶": 2827,
      "world.čĊ": 2828,
      "pret": 2829,
      "âĻª": 2830,
      "ä¸įåĲĮçļĦ": 2831,
      "find": 2832,
      "ä¼Ĭ": 2833,
      "ĠSo,Ġ": 2834,
      "Ġpeop": 2835,
      "lesĠ": 2836,
      "æĸ¹æ³ķ": 2837,
      "ger": 2838,
      "leg": 2839,
      "æĦıåĳ³": 2840,
      "nam": 2841,
      "ĠhisĠ": 2842,
      "åĿĹ": 2843,
      "gram": 2844,
      "çĭ¬": 2845,
      "keep": 2846,
      "ï¼į": 2847,
      "å¾ĭ": 2848,
      "æĦŁè§ī": 2849,
      "èº«ä½ĵ": 2850,
      "Ġap": 2851,
      "ĠTheseĠ": 2852,
      "onder": 2853,
      "I'veĠ": 2854,
      "Ġå·": 2855,
      "æľīè¶£": 2856,
      "IĠwasĠ": 2857,
      "outĠofĠ": 2858,
      "åĲ¸": 2859,
      "æ²¹": 2860,
      "éĻĲ": 2861,
      "ĠheĠ": 2862,
      "æľºä¼ļ": 2863,
      "me": 2864,
      "water": 2865,
      "åħ»": 2866,
      "edĠbyĠ": 2867,
      "nation": 2868,
      "å°±åĥı": 2869,
      "é¢ĳ": 2870,
      "ï¼ĮĠä»ĸ": 2871,
      "æľīäºĽ": 2872,
      "Ġart": 2873,
      "ï¼ļĠ": 2874,
      "å®īåħ¨": 2875,
      "incre": 2876,
      "åħ¶ä¸Ń": 2877,
      "æķĻèĤ²": 2878,
      "esĠareĠ": 2879,
      "åŃ¦æł¡": 2880,
      "å·ŀ": 2881,
      "åĩºçİ°": 2882,
      "eak": 2883,
      "ry": 2884,
      "çº³": 2885,
      "ä¹ħ": 2886,
      "åºŃ": 2887,
      "æĢĿèĢĥ": 2888,
      "bot": 2889,
      "ä»¶äºĭ": 2890,
      "inĠaĠ": 2891,
      "IĠthink": 2892,
      "Ġåİ»": 2893,
      "important": 2894,
      "ĠmeĠ": 2895,
      "ati": 2896,
      "åħħ": 2897,
      "ç©¿": 2898,
      "Ġway": 2899,
      "ĠaroundĠ": 2900,
      "on.čĊ": 2901,
      "ä¼¤": 2902,
      "åį±": 2903,
      "çļĦæĹ¶éĹ´": 2904,
      "oo": 2905,
      "æĺ¯åĲ¦": 2906,
      "ĠBecauseĠ": 2907,
      "å¥³æĢ§": 2908,
      "order": 2909,
      "ingĠaboutĠ": 2910,
      "lex": 2911,
      "viron": 2912,
      "æĿĢ": 2913,
      "ence.čĊ": 2914,
      "educ": 2915,
      "eĠthink": 2916,
      "dep": 2917,
      "ï¼Įä»ĸ": 2918,
      "irl": 2919,
      "å£°éŁ³": 2920,
      "eir": 2921,
      "buil": 2922,
      "Ġthought": 2923,
      "Ġmillion": 2924,
      "æ´ĭ": 2925,
      "Ġåĩ": 2926,
      "et.čĊ": 2927,
      "ĠaĠfew": 2928,
      "ĠThankĠyou.čĊ": 2929,
      "mightĠ": 2930,
      "ä»į": 2931,
      "orm": 2932,
      "å¦Ī": 2933,
      "ĠaĠlotĠofĠ": 2934,
      "cept": 2935,
      "ä¸ĸçºª": 2936,
      "ä»¤äºº": 2937,
      "Ġäºĭå®ŀä¸Ĭ": 2938,
      "ç»§": 2939,
      "ator": 2940,
      "really": 2941,
      "çī¹åĪ«": 2942,
      "éĺ³": 2943,
      "æģĲ": 2944,
      "ĠmanyĠ": 2945,
      "reg": 2946,
      "éĿ©": 2947,
      "Ġå¸": 2948,
      "ention": 2949,
      "ofĠaĠ": 2950,
      "åİĨåı²": 2951,
      "æĦıåĳ³çĿĢ": 2952,
      "ĠsoĠ": 2953,
      "actĠ": 2954,
      "lot": 2955,
      "ä¸´": 2956,
      "etim": 2957,
      "ĠNow,Ġ": 2958,
      "åħ¶å®ŀ": 2959,
      "ĠMyĠ": 2960,
      "Ġcar": 2961,
      "environ": 2962,
      "æİī": 2963,
      "åį³": 2964,
      "åľ¨ä¸Ģèµ·": 2965,
      "ess.čĊ": 2966,
      "edĠthatĠ": 2967,
      "æĳĦ": 2968,
      "ç¦ı": 2969,
      "Wh": 2970,
      "å©": 2971,
      "å¤«": 2972,
      "å°Ħ": 2973,
      "Ġsay": 2974,
      "Ġbo": 2975,
      ",ĠandĠtheyĠ": 2976,
      "éĩĩ": 2977,
      "çĸ¾": 2978,
      "realiz": 2979,
      "ï¼Ľ": 2980,
      "stop": 2981,
      "ĠbyĠ": 2982,
      "heĠs": 2983,
      "istĠ": 2984,
      "Ġare": 2985,
      "ush": 2986,
      "ï¼ĮĠå¦Ĥ": 2987,
      "æİ§åĪ¶": 2988,
      "Ġåģ": 2989,
      "idd": 2990,
      "impl": 2991,
      "ident": 2992,
      "olv": 2993,
      "level": 2994,
      "ï¼ĮĠä½Ĩæĺ¯": 2995,
      "æ¤į": 2996,
      "Ġph": 2997,
      "e,ĠtheĠ": 2998,
      "se,Ġ": 2999,
      "Ŀè¯ķ": 3000,
      "whatĠweĠ": 3001,
      "wasĠaĠ": 3002,
      "ĩå®": 3003,
      "ç¡®å®ŀ": 3004,
      "shouldĠ": 3005,
      "ä¾Ŀ": 3006,
      "æĻ¯": 3007,
      "ilyĠ": 3008,
      "inst": 3009,
      "ä¿ĿæĬ¤": 3010,
      "ĩå®Ļ": 3011,
      "Ġhe": 3012,
      "Ġalso": 3013,
      "ask": 3014,
      "edĠby": 3015,
      "èŀ": 3016,
      "å°½": 3017,
      "system": 3018,
      "æŃĮ": 3019,
      "rol": 3020,
      "æĥħåĨµ": 3021,
      "bitĠ": 3022,
      "war": 3023,
      "Ġtook": 3024,
      "Ġåı¯ä»¥": 3025,
      "intoĠ": 3026,
      "loveĠ": 3027,
      "éĤ£æł·": 3028,
      "æĪĳåľ¨": 3029,
      "å®ŀéĻħä¸Ĭ": 3030,
      "Ġè¿ĻéĩĮ": 3031,
      "æĦŁåĪ°": 3032,
      "ce": 3033,
      "äº¡": 3034,
      "æĴŃ": 3035,
      "çķĻ": 3036,
      "ä¸»ä¹ī": 3037,
      "Ġactually": 3038,
      "quiteĠ": 3039,
      "çļĦæĥ³": 3040,
      "çħ§çīĩ": 3041,
      "åģ¥åº·": 3042,
      "bit": 3043,
      "sĠfor": 3044,
      "åĲĮæĹ¶": 3045,
      "overĠtheĠ": 3046,
      "æį¢": 3047,
      "å¤įæĿĤ": 3048,
      "din": 3049,
      "çĳ": 3050,
      "ural": 3051,
      "ĠWe'reĠ": 3052,
      "whyĠ": 3053,
      "letĠ": 3054,
      "ost": 3055,
      "èĴ": 3056,
      "Ġwho": 3057,
      "åıªæľī": 3058,
      "é¾": 3059,
      "iter": 3060,
      "ov": 3061,
      "abil": 3062,
      "èĳ": 3063,
      "o.čĊ": 3064,
      "Ġè¿Ļç§į": 3065,
      "emp": 3066,
      "research": 3067,
      "ulation": 3068,
      "edĠwith": 3069,
      "Ġthis.čĊ": 3070,
      "Ġthere.čĊ": 3071,
      "sideĠ": 3072,
      "bre": 3073,
      "ç§¯": 3074,
      "ifĠyouĠ": 3075,
      "ä¸¥": 3076,
      ",Ġs": 3077,
      ",ĠyouĠknow": 3078,
      "divid": 3079,
      "æĦıè¯ĨåĪ°": 3080,
      "arth": 3081,
      "stuff": 3082,
      "fort": 3083,
      "è¯´ï¼ļâĢľ": 3084,
      "Ġallow": 3085,
      "æ£Ĵ": 3086,
      "s.": 3087,
      "list": 3088,
      "åĩı": 3089,
      "åºı": 3090,
      "å¤ļå°ĳ": 3091,
      "æīĢæľīçļĦ": 3092,
      "è¯Ńè¨Ģ": 3093,
      "Ġcomp": 3094,
      "cell": 3095,
      "è¿Ľåħ¥": 3096,
      "ik": 3097,
      "çļĦæ°": 3098,
      "Ġä»¥": 3099,
      "ãĢĭ": 3100,
      "åĪ°çļĦ": 3101,
      "Ġmon": 3102,
      "one.čĊ": 3103,
      "ãĢĬ": 3104,
      "Ġcoun": 3105,
      "s,ĠtheĠ": 3106,
      "æľīäºº": 3107,
      "stat": 3108,
      "Ġapp": 3109,
      "into": 3110,
      "hadĠtoĠ": 3111,
      "Ġä»¥åıĬ": 3112,
      "æŁĵ": 3113,
      "econd": 3114,
      "beaut": 3115,
      "ä¸ĸçķĮä¸Ĭ": 3116,
      "gl": 3117,
      "yĠtheĠ": 3118,
      "é£Łçī©": 3119,
      "lessĠ": 3120,
      "ĠAll": 3121,
      "æĻļ": 3122,
      "å¸¦æĿ¥": 3123,
      "countr": 3124,
      "äºĨĠ": 3125,
      "Ġdiffer": 3126,
      "11": 3127,
      "ryĠ": 3128,
      "åįĹ": 3129,
      "çĽ®æłĩ": 3130,
      "pict": 3131,
      "åľ°åĮº": 3132,
      "å¨ģ": 3133,
      "haveĠtheĠ": 3134,
      "çļĦæĸ¹æ³ķ": 3135,
      "èİ·å¾Ĺ": 3136,
      "æĿ¿": 3137,
      "iel": 3138,
      "edĠup": 3139,
      "è¡Ģ": 3140,
      "ĠSoĠweĠ": 3141,
      "åķĬ": 3142,
      "timeĠ": 3143,
      "ublic": 3144,
      "è®¡åĪĴ": 3145,
      "hand": 3146,
      "å½ĵæĹ¶": 3147,
      "åĪ©çĶ¨": 3148,
      "åĲĪä½ľ": 3149,
      "leas": 3150,
      "æĻº": 3151,
      "çļĦç¬¬": 3152,
      "ç»§ç»Ń": 3153,
      "äººãĢĤčĊ": 3154,
      "å¼Ĥ": 3155,
      "edĠandĠ": 3156,
      "åĲĦç§į": 3157,
      "ä¸ŃåĽ½": 3158,
      "å±ħ": 3159,
      "åĿı": 3160,
      "ingĠup": 3161,
      "ï¼ĮĠå½ĵ": 3162,
      "needĠ": 3163,
      "éģĩ": 3164,
      "probab": 3165,
      "80": 3166,
      "æİĮ": 3167,
      "geĠ": 3168,
      "ï¼ĮĠâĢľ": 3169,
      "ä¸Ńå¿ĥ": 3170,
      "inc": 3171,
      "Ġå®ŀ": 3172,
      "ĠOneĠ": 3173,
      "glob": 3174,
      "ction": 3175,
      "åĪ¶éĢł": 3176,
      "çĪ¶": 3177,
      "less": 3178,
      "çĽĳ": 3179,
      "ĠthatĠtheyĠ": 3180,
      "æķĳ": 3181,
      "åŁºæľ¬": 3182,
      "Americ": 3183,
      "é¼ĵ": 3184,
      "edĠaĠ": 3185,
      "eĠtheĠs": 3186,
      "åį«": 3187,
      "åİĭ": 3188,
      "è´£": 3189,
      "å°Ĩä¼ļ": 3190,
      "ward": 3191,
      "Ġè¦ģ": 3192,
      "Ġhear": 3193,
      "Ġdollar": 3194,
      "edĠon": 3195,
      "begin": 3196,
      "angu": 3197,
      "great": 3198,
      "è¯´ï¼ĮâĢľ": 3199,
      "å°ıæĹ¶": 3200,
      "ĠthenĠ": 3201,
      "likeĠthis": 3202,
      "ream": 3203,
      "connect": 3204,
      "âĢĻ": 3205,
      "å¤ļæķ°": 3206,
      "point": 3207,
      "çŁŃ": 3208,
      "clo": 3209,
      "ï¼Įä¸į": 3210,
      "fun": 3211,
      "ingĠm": 3212,
      "æīįèĥ½": 3213,
      "çł´": 3214,
      "importantĠ": 3215,
      "èĥĮ": 3216,
      "inĠthisĠ": 3217,
      "startĠ": 3218,
      "åįĩ": 3219,
      "e,ĠbutĠ": 3220,
      "å»ºç«ĭ": 3221,
      "å°Ŀè¯ķ": 3222,
      "è¯¾": 3223,
      "å¤§åŃ¦": 3224,
      "ĠThat": 3225,
      "ĠçĶ¨": 3226,
      "jo": 3227,
      "èģĶç³»": 3228,
      "dem": 3229,
      "çĽĬ": 3230,
      "Ġsystem": 3231,
      "èĤ¯": 3232,
      "Ġäººä»¬": 3233,
      "æĢķ": 3234,
      "unch": 3235,
      "èĻĳ": 3236,
      "leĠofĠ": 3237,
      "haveĠaĠ": 3238,
      "likeĠtoĠ": 3239,
      "complet": 3240,
      "çľĭèµ·æĿ¥": 3241,
      "ä½ľçĶ¨": 3242,
      "åĸĦ": 3243,
      "ĠwereĠ": 3244,
      "head": 3245,
      "åį°åº¦": 3246,
      "å®ĺ": 3247,
      "ely": 3248,
      "è§£éĩĬ": 3249,
      "Ġteach": 3250,
      "æİ¥åıĹ": 3251,
      "å®ĥçļĦ": 3252,
      "actuallyĠ": 3253,
      "sĠinĠ": 3254,
      "eĠtheyĠ": 3255,
      "Ġacros": 3256,
      "cri": 3257,
      "ization": 3258,
      "æĵ": 3259,
      "è¯¯": 3260,
      "Ġit'sĠ": 3261,
      "ĠtheĠt": 3262,
      "æĿĲ": 3263,
      "Ġdes": 3264,
      "oneĠof": 3265,
      "ax": 3266,
      "æĭħ": 3267,
      "brain": 3268,
      "ĠæĪĸ": 3269,
      "æĭ¬": 3270,
      "çĦ¶èĢĮ": 3271,
      "ĠéĤ£äºĽ": 3272,
      "ĠCh": 3273,
      "aidĠ": 3274,
      "çĵ": 3275,
      "çĨ": 3276,
      "æ£®": 3277,
      "æ½": 3278,
      "Ġpart": 3279,
      "looking": 3280,
      "twoĠ": 3281,
      "èĹ": 3282,
      "å®ĩå®Ļ": 3283,
      "ªåĬĽ": 3284,
      "ity,Ġ": 3285,
      "ĠæĪĳçļĦ": 3286,
      "doingĠ": 3287,
      "çļ®": 3288,
      "è§¦": 3289,
      "prot": 3290,
      "æĽ´åĬł": 3291,
      "gn": 3292,
      "haveĠbeen": 3293,
      "ĠAndĠthisĠ": 3294,
      "ĠthereĠareĠ": 3295,
      "way.čĊ": 3296,
      "çº¸": 3297,
      "ï¼Įæĺ¯": 3298,
      "alleng": 3299,
      "åħŃ": 3300,
      "ä»·åĢ¼": 3301,
      "çļĦãĢĤ": 3302,
      "çļĦç¤": 3303,
      "Earth": 3304,
      "ĠtheĠp": 3305,
      "kind": 3306,
      "ve": 3307,
      "Ġï¼Ī": 3308,
      "ï¼ĮåĽłä¸º": 3309,
      "çĬ¯": 3310,
      "åĬ¿": 3311,
      "éĩįæĸ°": 3312,
      "åıĤä¸İ": 3313,
      "beĠs": 3314,
      "young": 3315,
      "vo": 3316,
      "Ġä¼ļ": 3317,
      "æī¿": 3318,
      "éĿł": 3319,
      "placeĠ": 3320,
      "ĠIt'sĠaĠ": 3321,
      "Ġå°Ĩ": 3322,
      "ĠIfĠyou": 3323,
      "æĿŁ": 3324,
      "vide": 3325,
      "Ġå¼": 3326,
      "ĠtryingĠtoĠ": 3327,
      "æļ´": 3328,
      "women": 3329,
      "åĨĽ": 3330,
      "produc": 3331,
      "å·¥åħ·": 3332,
      "åĵĪ": 3333,
      "willĠ": 3334,
      "ĠtellĠyou": 3335,
      "def": 3336,
      "hard": 3337,
      "sĠon": 3338,
      "ä¸īä¸ª": 3339,
      "é¦ĸåħĪ": 3340,
      "ĠthingĠ": 3341,
      "yĠofĠ": 3342,
      "ï¼ĮĠéĤ£": 3343,
      "åĮ»çĶŁ": 3344,
      "ingleĠ": 3345,
      "25": 3346,
      "rit": 3347,
      "su": 3348,
      "intĠ": 3349,
      "Ġsometh": 3350,
      "æħ¢": 3351,
      "ĠçļĦ": 3352,
      "ĠwhereĠ": 3353,
      "å¸Ĥåľº": 3354,
      "é¢ĨåŁŁ": 3355,
      "app": 3356,
      "ï¼ĮĠä¹Ł": 3357,
      "é¡¿": 3358,
      "éķľ": 3359,
      "fact": 3360,
      "ĠtooĠ": 3361,
      "çłģ": 3362,
      "sĠwith": 3363,
      "èĲ¥": 3364,
      "t.čĊ": 3365,
      "çĶµå½±": 3366,
      "goingĠto": 3367,
      "seem": 3368,
      "aboutĠ": 3369,
      "é¦Ĩ": 3370,
      "éĢģ": 3371,
      "goingĠtoĠbeĠ": 3372,
      "four": 3373,
      "findĠ": 3374,
      "DNA": 3375,
      "çĶŁäº§": 3376,
      "health": 3377,
      "ĠåĪ°": 3378,
      "Ġdec": 3379,
      "ĠæĪĳè®¤ä¸º": 3380,
      "Ġhum": 3381,
      "æĦıä¹ī": 3382,
      "æĢ§çļĦ": 3383,
      "environment": 3384,
      "Ġworld": 3385,
      "ly.čĊ": 3386,
      "changeĠ": 3387,
      "ï¼ģčĊ": 3388,
      "æĹı": 3389,
      "çļĦçł": 3390,
      "econdĠ": 3391,
      "very": 3392,
      "åĩłä¸ª": 3393,
      "Ġåı¦": 3394,
      "prof": 3395,
      "ĠK": 3396,
      "ï¼ĮĠåħ": 3397,
      "iful": 3398,
      "éĥ½æľī": 3399,
      "Ġtwo": 3400,
      "å±Ģ": 3401,
      "ĠIĠs": 3402,
      "åıĺæĪĲ": 3403,
      "æ¸¸æĪı": 3404,
      "usic": 3405,
      "å¹¶ä¸įæĺ¯": 3406,
      "pris": 3407,
      "it'sĠaĠ": 3408,
      "aper": 3409,
      "ĠI'veĠ": 3410,
      "äºĨãĢĤ": 3411,
      "éĥ½ä¼ļ": 3412,
      "group": 3413,
      "æĸ½": 3414,
      "æłĳ": 3415,
      "æ³¨æĦı": 3416,
      "fig": 3417,
      "âĢľčĊ": 3418,
      "é¡¶": 3419,
      "ç©ºéĹ´": 3420,
      "ĠYouĠknow": 3421,
      "å®¶åºŃ": 3422,
      "ĠæīĢä»¥æĪĳ": 3423,
      "æ¸©": 3424,
      "åħį": 3425,
      "åĬªåĬĽ": 3426,
      "éĩĮéĿ¢": 3427,
      "è´Ł": 3428,
      "ĠæīĢä»¥æĪĳä»¬": 3429,
      "Ġè¿Ļæĺ¯ä¸Ģä¸ª": 3430,
      "hop": 3431,
      "Ġthous": 3432,
      "åı¥": 3433,
      "æ³¢": 3434,
      "å®ĮæĪĲ": 3435,
      "èĻ«": 3436,
      "serv": 3437,
      "UnitedĠ": 3438,
      "prettyĠ": 3439,
      "wouldĠbeĠ": 3440,
      "Ġæ¯Ķå¦Ĥ": 3441,
      "åľ¨è¿ĻéĩĮ": 3442,
      "å°±åı¯ä»¥": 3443,
      "è®¨è®º": 3444,
      "èĵ": 3445,
      "ï¼Įæľī": 3446,
      "èĮĥ": 3447,
      "law": 3448,
      "s?čĊ": 3449,
      "Ġinter": 3450,
      "ï¼ĮĠèĢĮä¸Ķ": 3451,
      "å°±èĥ½": 3452,
      "life.čĊ": 3453,
      "è§Ĥå¯Ł": 3454,
      "becomeĠ": 3455,
      "å¿Ĺ": 3456,
      "ä½ľåĵģ": 3457,
      "only": 3458,
      "atingĠ": 3459,
      "ourc": 3460,
      "æĽ¾ç»ı": 3461,
      "ĠaroundĠtheĠ": 3462,
      "Ġbu": 3463,
      "Ġback": 3464,
      "çŃĸ": 3465,
      "Ġus": 3466,
      "Ġæ²¡æľī": 3467,
      "it,Ġ": 3468,
      "lightĠ": 3469,
      "åıįåºĶ": 3470,
      "oper": 3471,
      "å¹´è½»": 3472,
      "åī§": 3473,
      "ä¸Ģå®ļ": 3474,
      "åĪĨéĴŁ": 3475,
      "lookĠatĠ": 3476,
      "izeĠ": 3477,
      "ĠThey'reĠ": 3478,
      "ï¼ĮĠå¦Ĥæŀľ": 3479,
      "U.": 3480,
      "çļĦå¤§": 3481,
      "æĥ³æ³ķ": 3482,
      "like,Ġ": 3483,
      "effect": 3484,
      "hom": 3485,
      "men": 3486,
      "cial": 3487,
      "åĢį": 3488,
      "åĵ¥": 3489,
      "ativeĠ": 3490,
      "åģļäºĨ": 3491,
      "äº§åĵģ": 3492,
      "acter": 3493,
      "è¡Ĺ": 3494,
      "æıı": 3495,
      "IĠs": 3496,
      "said,Ġ\"": 3497,
      "talk": 3498,
      "Ġde": 3499,
      "å®ŀçİ°": 3500,
      "æ°¸": 3501,
      "veryĠs": 3502,
      "col": 3503,
      "walk": 3504,
      ",ĠwhoĠ": 3505,
      "berĠ": 3506,
      "pop": 3507,
      "Ġä¸İ": 3508,
      "å¹´ä»£": 3509,
      "phys": 3510,
      "åı¦ä¸Ģä¸ª": 3511,
      "or.čĊ": 3512,
      "ock": 3513,
      "mom": 3514,
      "Ġcont": 3515,
      "eah": 3516,
      "çĻĮ": 3517,
      "Inter": 3518,
      "åĩºäºĨ": 3519,
      "ĠNo": 3520,
      "ä¼ĺ": 3521,
      "åĺ": 3522,
      "æĺ¯åĽłä¸º": 3523,
      "es,": 3524,
      "åĽŃ": 3525,
      "mar": 3526,
      "çļĦå·¥ä½ľ": 3527,
      "èĪŀ": 3528,
      "çļĦç¤¾": 3529,
      "ä¼¦": 3530,
      "canĠbeĠ": 3531,
      "90": 3532,
      "ä¸įåĪ°": 3533,
      "çļĦæµ": 3534,
      "çİ°å®ŀ": 3535,
      "ĠhereĠ": 3536,
      "ï¼Įè¿Ļæĺ¯": 3537,
      "stand": 3538,
      "ĠallĠof": 3539,
      ",ĠwhereĠ": 3540,
      "æ¬§": 3541,
      "e.\"čĊ": 3542,
      "ï¼ĮĠå¥": 3543,
      "matter": 3544,
      "ï¼ĮéĤ£": 3545,
      "èıĮ": 3546,
      "70": 3547,
      "ĠæĬĬ": 3548,
      "ĳæĪĺ": 3549,
      "raw": 3550,
      "èī¾": 3551,
      "æĦŁè°¢": 3552,
      "ĠThisĠis": 3553,
      "ĠtheĠfirstĠ": 3554,
      "æĤ£": 3555,
      "lab": 3556,
      "åĬĽéĩı": 3557,
      "arm": 3558,
      "ç´§": 3559,
      "ityĠtoĠ": 3560,
      "çļĦæĥ³æ³ķ": 3561,
      "çĽ¸å½ĵ": 3562,
      "æ±½": 3563,
      "ainĠ": 3564,
      "ingĠthisĠ": 3565,
      "çļĦçĲ": 3566,
      "likeĠtheĠ": 3567,
      "ĠæĪĳä»¬åı¯ä»¥": 3568,
      "ĠalwaysĠ": 3569,
      "åĤ": 3570,
      "åĴ": 3571,
      "èĩªçĶ±": 3572,
      "ĠThisĠisĠaĠ": 3573,
      "hist": 3574,
      "éĨ": 3575,
      "allĠ": 3576,
      "åĨľ": 3577,
      "veryĠmuch": 3578,
      "ç«¥": 3579,
      "imagin": 3580,
      "åı¤": 3581,
      "æĮģç»Ń": 3582,
      "doneĠ": 3583,
      "ä¸½": 3584,
      "any": 3585,
      "Ġpr": 3586,
      "æĢª": 3587,
      "oto": 3588,
      "outh": 3589,
      "sĠlikeĠ": 3590,
      "ĠyearsĠ": 3591,
      "ĠAndĠso": 3592,
      "éĶ®": 3593,
      "data": 3594,
      "ĠAndĠIĠ": 3595,
      "åħ³æ³¨": 3596,
      "sens": 3597,
      "en'tĠ": 3598,
      "çĻ¾ä¸ĩ": 3599,
      "mayĠ": 3600,
      "ities": 3601,
      "åĨ²": 3602,
      "ollow": 3603,
      "particular": 3604,
      "åĮºåŁŁ": 3605,
      "æĪ·": 3606,
      "æľºåĻ¨äºº": 3607,
      "later": 3608,
      "Ġä¸ºä»Ģä¹Ī": 3609,
      "ĠAmeric": 3610,
      "readyĠ": 3611,
      "åĮĹ": 3612,
      "createĠ": 3613,
      "ç»ĵæŀĦ": 3614,
      "bil": 3615,
      "school": 3616,
      "ªĴ": 3617,
      "æľīçĤ¹": 3618,
      "è¿½": 3619,
      "ä¸Ģä½į": 3620,
      "Ġå¦ĤæŀľæĪĳä»¬": 3621,
      "ers.čĊ": 3622,
      "ĠIĠmean": 3623,
      "ĠSt": 3624,
      "å®¹æĺĵ": 3625,
      "ç£": 3626,
      "ĠthanĠ": 3627,
      ",ĠwhichĠisĠ": 3628,
      "until": 3629,
      "ven": 3630,
      "å¤ĦçĲĨ": 3631,
      "çļĦå°ı": 3632,
      "children": 3633,
      "Ġgr": 3634,
      "esĠtheĠ": 3635,
      "Ġå¹": 3636,
      "æ´»åĬ¨": 3637,
      "ityĠofĠ": 3638,
      "experienc": 3639,
      "ä»ĺ": 3640,
      "åĨ°": 3641,
      "belie": 3642,
      "è®¤è¯Ĩ": 3643,
      "èģļ": 3644,
      "between": 3645,
      "Stat": 3646,
      "eĠthan": 3647,
      "Chin": 3648,
      "information": 3649,
      "Ġå°±åĥı": 3650,
      "s,Ġand": 3651,
      "ä¸įåı¯": 3652,
      "è¶ħè¿ĩ": 3653,
      "sĠto": 3654,
      "att": 3655,
      "youĠm": 3656,
      "ä¿®": 3657,
      "is.čĊ": 3658,
      "æľįåĬ¡": 3659,
      "æĺ¯Ġ": 3660,
      "ication": 3661,
      "çº¢": 3662,
      "çº½": 3663,
      "Ġchang": 3664,
      "ç¥ŀç»ı": 3665,
      "ofĠthisĠ": 3666,
      "æľĢç»Ī": 3667,
      "èµĦæºĲ": 3668,
      "åĪĿ": 3669,
      "ĠAfric": 3670,
      "è§Ĥä¼Ĺ": 3671,
      "mark": 3672,
      "åľ¨è¿Ļ": 3673,
      "itĠwas": 3674,
      "Ġtime.čĊ": 3675,
      "ningĠ": 3676,
      "æĬĹ": 3677,
      "è¡ĮåĬ¨": 3678,
      "æĺ¾ç¤º": 3679,
      "al.čĊ": 3680,
      "quick": 3681,
      "åĿ¦": 3682,
      "fiveĠ": 3683,
      "isĠtoĠ": 3684,
      "æł¸": 3685,
      "åĪĨäº«": 3686,
      "ĠtheĠmostĠ": 3687,
      "wholeĠ": 3688,
      "eam": 3689,
      "pass": 3690,
      "rot": 3691,
      "éĺ²": 3692,
      "ä¸»è¦ģ": 3693,
      "å¦Ĥæŀľä½ł": 3694,
      "mag": 3695,
      "è§Ĩé¢ĳ": 3696,
      "atic": 3697,
      "cop": 3698,
      "knew": 3699,
      "iseĠ": 3700,
      "edĠinĠ": 3701,
      "å·¦": 3702,
      "ï¼Įä¹Ł": 3703,
      "ĠthatĠisĠ": 3704,
      "present": 3705,
      "ä»£è¡¨": 3706,
      "èĪ¹": 3707,
      "èĻ½": 3708,
      "uth": 3709,
      "¯ä¸Ģ": 3710,
      "éĩĮçļĦ": 3711,
      "ãĢģĠ": 3712,
      "Ġwe'reĠ": 3713,
      "polit": 3714,
      "Ġthos": 3715,
      "ç»ĥ": 3716,
      "dist": 3717,
      "engin": 3718,
      "æĪĺäºī": 3719,
      "is,Ġ": 3720,
      "åħ´è¶£": 3721,
      "friend": 3722,
      "ireĠ": 3723,
      "sĠaĠ": 3724,
      "s,ĠbutĠ": 3725,
      "è´«": 3726,
      "otherĠ": 3727,
      "Ġåħ³": 3728,
      "sĠwereĠ": 3729,
      "çļĦçĪ": 3730,
      "æŁĲç§į": 3731,
      "doesĠ": 3732,
      "otion": 3733,
      "Ġschool": 3734,
      "çīĪ": 3735,
      "ement": 3736,
      "exact": 3737,
      "è¿Ļä¸ªéĹ®é¢ĺ": 3738,
      "Ġä¸įè¿ĩ": 3739,
      "æ²»çĸĹ": 3740,
      "New": 3741,
      "rac": 3742,
      "ï¼ĮâĢľ": 3743,
      "Ġfeel": 3744,
      "æĶ¿æ²»": 3745,
      "è´¥": 3746,
      "maybeĠ": 3747,
      "edĠinĠtheĠ": 3748,
      "den": 3749,
      "ä¼¯": 3750,
      "è½¯": 3751,
      "å¤ªéĺ³": 3752,
      "he'sĠ": 3753,
      "understandĠ": 3754,
      "ork": 3755,
      "ç«¯": 3756,
      "æ¼Ķè®²": 3757,
      "æĸĩåĮĸ": 3758,
      "çļĦçłĶç©¶": 3759,
      "whenĠyou": 3760,
      "åĽŀåĪ°": 3761,
      "åı«åģļ": 3762,
      "ĠonĠtheĠ": 3763,
      "ĠSheĠ": 3764,
      "Ġgu": 3765,
      "eath": 3766,
      "Ġamaz": 3767,
      "experim": 3768,
      "me,Ġ": 3769,
      "æİ¥ä¸ĭæĿ¥": 3770,
      "ä¸ĬãĢĤčĊ": 3771,
      "action": 3772,
      "çĸ¾çĹħ": 3773,
      "Ġout": 3774,
      "æľīäºĨ": 3775,
      "beforeĠ": 3776,
      "youĠw": 3777,
      "èµĽ": 3778,
      "æ¯Ķè¾ĥ": 3779,
      "aterial": 3780,
      "Ġproblem": 3781,
      "full": 3782,
      "èŃ¦": 3783,
      "ĠåŁ": 3784,
      "éĥ½åľ¨": 3785,
      "åģļåĪ°": 3786,
      "æĺİçĻ½": 3787,
      "Ġthough": 3788,
      "æľ¨": 3789,
      "åįģåĪĨ": 3790,
      "Ġdidn'tĠ": 3791,
      "weĠhaveĠ": 3792,
      "ï¼Įå¯¹": 3793,
      "alsoĠ": 3794,
      "ä¼ģ": 3795,
      "çļĦæĦŁ": 3796,
      "e,Ġand": 3797,
      "fr": 3798,
      "åı³": 3799,
      "'llĠ": 3800,
      "æ¨¡å¼ı": 3801,
      "TheĠ": 3802,
      "por": 3803,
      "âĢĿãĢĤčĊ": 3804,
      "ĠtheyĠareĠ": 3805,
      "è¶ĬæĿ¥": 3806,
      "æĢ»æĺ¯": 3807,
      "ĠhasĠ": 3808,
      "let'sĠ": 3809,
      "ï¼ĮĠä¸į": 3810,
      "çĽ´åĪ°": 3811,
      "redĠ": 3812,
      "ĠgoĠ": 3813,
      "çļĦæĥħåĨµ": 3814,
      "ĠâĻª": 3815,
      "oman": 3816,
      "è¾ĵ": 3817,
      "æ¯ıä¸ªäºº": 3818,
      "èģĮ": 3819,
      "éħį": 3820,
      "Ġdown": 3821,
      "åĪĨåŃĲ": 3822,
      "langu": 3823,
      "éŃ": 3824,
      "è¶ĬæĿ¥è¶Ĭ": 3825,
      "Ġanimal": 3826,
      "itĠisĠ": 3827,
      "çľŁå®ŀ": 3828,
      "åĲĹï¼Ł": 3829,
      "eachĠother": 3830,
      "beautiful": 3831,
      "UnitedĠStat": 3832,
      "itiesĠ": 3833,
      "è¯Ħ": 3834,
      "ive.čĊ": 3835,
      "ah": 3836,
      "çļĦçĲĨ": 3837,
      "e:": 3838,
      "sĠout": 3839,
      "product": 3840,
      "oh": 3841,
      "ĠbecauseĠ": 3842,
      "å±ŀ": 3843,
      "ies,Ġ": 3844,
      "Ġour": 3845,
      "åĲ«": 3846,
      "univers": 3847,
      "åıĮ": 3848,
      "exist": 3849,
      "Ġthere'sĠaĠ": 3850,
      "èĢĥèĻĳ": 3851,
      "nov": 3852,
      "ĠWhat": 3853,
      "diseas": 3854,
      "åªĴ": 3855,
      "kindĠof": 3856,
      "An": 3857,
      "led": 3858,
      "top": 3859,
      "æĽ²": 3860,
      "something": 3861,
      "å¢ŀéķ¿": 3862,
      "ç¡Ģ": 3863,
      "different": 3864,
      "ç§ĳåŃ¦å®¶": 3865,
      "project": 3866,
      "ĠWell,Ġ": 3867,
      "clear": 3868,
      "dict": 3869,
      "ingĠthem": 3870,
      "isĠthat": 3871,
      "çģ¯": 3872,
      "ç±»ä¼¼": 3873,
      "çĸĳ": 3874,
      "contin": 3875,
      "è¯º": 3876,
      "ird": 3877,
      "æŀ¶": 3878,
      "è®Ń": 3879,
      "rightĠnow": 3880,
      "eĠtheir": 3881,
      "å¼¹": 3882,
      "å¡ĳ": 3883,
      "åĩĨå¤ĩ": 3884,
      "ĠtoĠdo": 3885,
      "èĪ¬": 3886,
      "remember": 3887,
      "aĠs": 3888,
      "lov": 3889,
      "çĽ®åīį": 3890,
      "è§ĤçĤ¹": 3891,
      "issu": 3892,
      "excit": 3893,
      "åı¦ä¸Ģ": 3894,
      "lotĠofĠ": 3895,
      "wrong": 3896,
      "hous": 3897,
      "havi": 3898,
      "veĠtheĠ": 3899,
      "æł¹æľ¬": 3900,
      "aj": 3901,
      "met": 3902,
      "ä»ĭ": 3903,
      "eĠtheseĠ": 3904,
      "Ġmuch": 3905,
      "lock": 3906,
      "æĽ´å¥½": 3907,
      "portun": 3908,
      "äº®": 3909,
      "Ġå½ĵæĪĳ": 3910,
      "opportun": 3911,
      "åĪ¶ä½ľ": 3912,
      "æŃ»äº¡": 3913,
      "Ġå¯¹äºİ": 3914,
      "èĻ½çĦ¶": 3915,
      "such": 3916,
      "æĦıæĢĿ": 3917,
      "lookĠat": 3918,
      "æ¥ļ": 3919,
      "kay": 3920,
      "ä»¥åīį": 3921,
      "oneĠofĠ": 3922,
      "éĢļå¸¸": 3923,
      "ĠOr": 3924,
      "ĠItĠwasĠ": 3925,
      "åĬŀæ³ķ": 3926,
      "yĠthatĠ": 3927,
      "çļĦä¸ĸçķĮ": 3928,
      "ĠdidĠ": 3929,
      "è·³": 3930,
      "peopleĠwhoĠ": 3931,
      "çĶµè¯Ŀ": 3932,
      "Ġmak": 3933,
      "ä¸ĬéĿ¢": 3934,
      "becom": 3935,
      "Ġå®ŀéĻħä¸Ĭ": 3936,
      "pec": 3937,
      "éª¨": 3938,
      "ï¼ĮĠå¹¶ä¸Ķ": 3939,
      "æľīåħ³": 3940,
      "âĢ¦": 3941,
      "æľºæŀĦ": 3942,
      "ym": 3943,
      "ĠçĦ¶èĢĮ": 3944,
      "éģį": 3945,
      "åĬ±": 3946,
      "enter": 3947,
      "èĥ½æºĲ": 3948,
      "å¾Īå¥½": 3949,
      "ĠæŃ£": 3950,
      "å¥¥": 3951,
      "çĽĸ": 3952,
      "éĺ¶": 3953,
      "ĠéĿŀå¸¸": 3954,
      "éĹ»": 3955,
      "fre": 3956,
      "first": 3957,
      "è¸": 3958,
      "ildĠ": 3959,
      "æĮī": 3960,
      "çģµ": 3961,
      "ĠyourĠ": 3962,
      "computer": 3963,
      "æĹłè®º": 3964,
      "åĲ¬åĪ°": 3965,
      "sayĠ": 3966,
      "ĠéĢļè¿ĩ": 3967,
      "es,ĠandĠ": 3968,
      "è´Ŀ": 3969,
      "ĠFor": 3970,
      "becauseĠth": 3971,
      "found": 3972,
      "è·ĳ": 3973,
      "çļĦäººä»¬": 3974,
      "jectĠ": 3975,
      "èĩªæĪĳ": 3976,
      "å¥¹ä»¬": 3977,
      "çļĦæķ°æį®": 3978,
      "ook": 3979,
      "åľ¨ä¸Ģä¸ª": 3980,
      "leĠtoĠ": 3981,
      "about": 3982,
      "èĨ": 3983,
      "å°º": 3984,
      "caus": 3985,
      "what'sĠ": 3986,
      "ç»ĵæĿŁ": 3987,
      "æĪĳè¦ģ": 3988,
      "ump": 3989,
      "irdĠ": 3990,
      "ç¼ĸ": 3991,
      "press": 3992,
      "blyĠ": 3993,
      "åŁºç¡Ģ": 3994,
      "cord": 3995,
      "education": 3996,
      "dividual": 3997,
      "watch": 3998,
      "è¿·": 3999,
      "ä¼Ł": 4000,
      "inut": 4001,
      "ä¸Ģä¸ªäºº": 4002,
      "åıĳæĺİ": 4003,
      "å²Ľ": 4004,
      "ĠæľĢåĲİ": 4005,
      "ä¸įæĸŃ": 4006,
      "ĠSoĠI": 4007,
      "èĭ¦": 4008,
      "sĠthatĠareĠ": 4009,
      "Ġterm": 4010,
      "entist": 4011,
      "æķ°åŃĹ": 4012,
      "å¹¶ä¸Ķ": 4013,
      "ĠåĨį": 4014,
      "tell": 4015,
      "ĠæĪĳåľ¨": 4016,
      "dire": 4017,
      "ugg": 4018,
      "åŃ©åŃĲä»¬": 4019,
      "risk": 4020,
      "en.čĊ": 4021,
      "ess,Ġ": 4022,
      "ĠIĠdon'tĠ": 4023,
      "ä½łåı¯ä»¥": 4024,
      "Ġday": 4025,
      "ä¸ĢåĪĩ": 4026,
      "æĹħ": 4027,
      "word": 4028,
      "proc": 4029,
      "ĠtheyĠwereĠ": 4030,
      "Afric": 4031,
      "most": 4032,
      "ated": 4033,
      "--ĠandĠ": 4034,
      "ä¼łç»Ł": 4035,
      "çº½çº¦": 4036,
      "girl": 4037,
      "piec": 4038,
      "doing": 4039,
      "çķ¥": 4040,
      "aster": 4041,
      "willĠbeĠ": 4042,
      "relation": 4043,
      "åħ«": 4044,
      "çļĦæİ": 4045,
      "robot": 4046,
      "eed": 4047,
      "rather": 4048,
      "çļĦçĹ": 4049,
      "å·¥ç¨ĭ": 4050,
      "impleĠ": 4051,
      "åı¯èĥ½ä¼ļ": 4052,
      "say,Ġ\"": 4053,
      "clud": 4054,
      "åħ¸": 4055,
      "å¤§éĩı": 4056,
      "ĠAndĠthatĠ": 4057,
      "myself": 4058,
      "ä¼Ļ": 4059,
      "ĠyearsĠago": 4060,
      "youĠhaveĠ": 4061,
      "ĠInĠfact": 4062,
      "è®¡ç®Ĺæľº": 4063,
      "Ġthere's": 4064,
      "!čĊ": 4065,
      "ï¼ĮĠæīĢä»¥": 4066,
      "åįİ": 4067,
      "çľĭçĿĢ": 4068,
      "ĠtryĠtoĠ": 4069,
      "å¦Ļ": 4070,
      "network": 4071,
      "non": 4072,
      "challeng": 4073,
      "age.čĊ": 4074,
      "çĹĽ": 4075,
      "æĿĲæĸĻ": 4076,
      "æĪĳä»¬åľ¨": 4077,
      "ionĠofĠ": 4078,
      "irc": 4079,
      "achin": 4080,
      "åĿĩ": 4081,
      "æ±½è½¦": 4082,
      "ï¼ĮçĦ¶åĲİ": 4083,
      "iffic": 4084,
      "çļĦç¡": 4085,
      "can'tĠ": 4086,
      "control": 4087,
      "é¡¾": 4088,
      "æ¯ıå¤©": 4089,
      "è®°å½ķ": 4090,
      "jour": 4091,
      "lineĠ": 4092,
      "sign": 4093,
      "Ġä½ĨæĪĳ": 4094,
      ",Ġthen": 4095,
      "norm": 4096,
      "earlyĠ": 4097,
      "known": 4098,
      "Ġsome": 4099,
      "cha": 4100,
      "ä¸Ģå¤©": 4101,
      "çīĽ": 4102,
      "here.čĊ": 4103,
      "You": 4104,
      "æľīå¾Īå¤ļ": 4105,
      "æ¸ħæ¥ļ": 4106,
      "äºĨæĪĳ": 4107,
      "erv": 4108,
      "Ġpo": 4109,
      "ecauseĠtheĠ": 4110,
      "å¥³åŃ©": 4111,
      "åĩłä¹İ": 4112,
      "countri": 4113,
      "eĠtoĠ": 4114,
      "Ġåıĳ": 4115,
      "ç¨ĭåº¦": 4116,
      "å¤§æ¦Ĥ": 4117,
      "eĠsom": 4118,
      "speak": 4119,
      "storyĠ": 4120,
      "wentĠ": 4121,
      "istic": 4122,
      "spect": 4123,
      "wonder": 4124,
      "ä¸ĥ": 4125,
      "Ġthre": 4126,
      "åģļåĩº": 4127,
      ",ĠIĠthink": 4128,
      "cogn": 4129,
      "ĠåĲĮæĹ¶": 4130,
      "Ġtyp": 4131,
      "æĪĳä»¬åı¯ä»¥": 4132,
      "ï¼ĮĠæĪĸèĢħ": 4133,
      "æĿ¥è¯´ï¼Į": 4134,
      "åįı": 4135,
      "ctor": 4136,
      "aĠb": 4137,
      "Ġdev": 4138,
      "expect": 4139,
      "èŀį": 4140,
      "miss": 4141,
      "oil": 4142,
      "çļĦæŃ": 4143,
      "able.čĊ": 4144,
      "ç¦»å¼Ģ": 4145,
      "usingĠ": 4146,
      "ĠthatĠI": 4147,
      "å¸Ŀ": 4148,
      "Ġcell": 4149,
      "ï¼ĮĠåĲ": 4150,
      "government": 4151,
      "dom": 4152,
      "faceĠ": 4153,
      "ĠTheĠs": 4154,
      "Ġå½ĵä½ł": 4155,
      "æĦ¿æĦı": 4156,
      "ting": 4157,
      "ision": 4158,
      "ĠintoĠ": 4159,
      "æīĭæľº": 4160,
      "Ġåį³": 4161,
      "å¾ģ": 4162,
      "èĵĿ": 4163,
      "me.čĊ": 4164,
      "sĠhaveĠ": 4165,
      "usedĠtoĠ": 4166,
      "åįĸ": 4167,
      "entireĠ": 4168,
      "æĥ³åĪ°": 4169,
      "èĭ±åĽ½": 4170,
      "è§Ĵåº¦": 4171,
      "small": 4172,
      "åŃĲãĢĤčĊ": 4173,
      "åĪĨä¹ĭ": 4174,
      "éħĴ": 4175,
      "valu": 4176,
      "èĹı": 4177,
      "pain": 4178,
      "å¯¹æĪĳ": 4179,
      "è¿ĽåĮĸ": 4180,
      ",ĠwhichĠis": 4181,
      "augh": 4182,
      "la": 4183,
      "æĢĢ": 4184,
      "IĠwas": 4185,
      "å¯»æī¾": 4186,
      "çļĦæĸ°": 4187,
      "âĢĶâĢĶĠ": 4188,
      "ĠIĠwas": 4189,
      "æĺ¯ï¼Į": 4190,
      "çļĦç¥": 4191,
      "å¹´çļĦ": 4192,
      "ĠallĠofĠ": 4193,
      "star": 4194,
      "ä¸ŃãĢĤčĊ": 4195,
      "newĠ": 4196,
      "roll": 4197,
      "å°±åľ¨": 4198,
      "Ġhour": 4199,
      "éģ¿": 4200,
      "è®°å¾Ĺ": 4201,
      "å¡Ķ": 4202,
      "urop": 4203,
      "itiveĠ": 4204,
      "ĠmakeĠ": 4205,
      "èĤī": 4206,
      "éĢŁåº¦": 4207,
      "ç»ĻæĪĳ": 4208,
      "A:": 4209,
      "ĠâĢĶ": 4210,
      "çļĦæľĢ": 4211,
      "çĹħæ¯Ĵ": 4212,
      "sm": 4213,
      "¤Ĳ": 4214,
      "åľ£": 4215,
      "ĠæĪĳä»¬çļĦ": 4216,
      "åĵªéĩĮ": 4217,
      "åĶ¯ä¸Ģ": 4218,
      "body": 4219,
      "million": 4220,
      "ofĠthem": 4221,
      "Ġshow": 4222,
      "ç½ª": 4223,
      "æ£Ģ": 4224,
      "ç¤¾åĮº": 4225,
      "ç¿»": 4226,
      "global": 4227,
      "Ġthousand": 4228,
      "sit": 4229,
      "Ġcall": 4230,
      "å¥ĭ": 4231,
      "çī©è´¨": 4232,
      "ç©·": 4233,
      "èº«ä¸Ĭ": 4234,
      "people": 4235,
      "sub": 4236,
      "ï¼ĮĠåį": 4237,
      "week": 4238,
      "vari": 4239,
      "è¯´çļĦ": 4240,
      "æİ¥çĿĢ": 4241,
      "s,Ġ\"": 4242,
      "ä»ħä»ħæĺ¯": 4243,
      "ä»įçĦ¶": 4244,
      "ĠtoĠaĠ": 4245,
      "ĠYork": 4246,
      "discover": 4247,
      "ç¼º": 4248,
      "æļĹ": 4249,
      "Ġè®©æĪĳä»¬": 4250,
      "Ġhim": 4251,
      "é¢Ĩå¯¼": 4252,
      "tak": 4253,
      "çļĦæ¼": 4254,
      "Ġhand": 4255,
      "night": 4256,
      "Ġè¢«": 4257,
      "Ġans": 4258,
      "Ġwater": 4259,
      "å¾Ĺä¸į": 4260,
      "ĠasĠtheĠ": 4261,
      "gettingĠ": 4262,
      "ç§»åĬ¨": 4263,
      "Ġdi": 4264,
      "æ²Ļ": 4265,
      "å°ıçļĦ": 4266,
      "ç³Ł": 4267,
      "éĶĻè¯¯": 4268,
      "ĠThereĠareĠ": 4269,
      "energyĠ": 4270,
      "Ġthat's": 4271,
      "è°Īè®º": 4272,
      "ester": 4273,
      "Ġman": 4274,
      "çıŃ": 4275,
      "sk": 4276,
      "etic": 4277,
      "goingĠ": 4278,
      "raz": 4279,
      "economic": 4280,
      "hy": 4281,
      "ĠåĮ": 4282,
      "ç»¿": 4283,
      "e,Ġwhich": 4284,
      "æ¯ıä¸ª": 4285,
      "Ġä¹Łè®¸": 4286,
      "edĠfor": 4287,
      "Ġbod": 4288,
      "çľĭè§ģ": 4289,
      "å®ŀéªĮå®¤": 4290,
      "ning": 4291,
      "èĲ¨": 4292,
      "é£ŀè¡Į": 4293,
      "é¤Ĳ": 4294,
      "ĠlikeĠ": 4295,
      "åĲ¯": 4296,
      "äººéĥ½": 4297,
      "æ²³": 4298,
      "ier": 4299,
      "å¹ħ": 4300,
      "æģ¶": 4301,
      "ĠSoĠtheĠ": 4302,
      "ç¬¬ä¸Ģæ¬¡": 4303,
      "byĠtheĠ": 4304,
      "example": 4305,
      "Ġsci": 4306,
      "Ġinto": 4307,
      "Ġhuman": 4308,
      "Ġpar": 4309,
      "ilm": 4310,
      "åĳ¼": 4311,
      "Ġbec": 4312,
      "utureĠ": 4313,
      "IĠwant": 4314,
      "ĠAsĠ": 4315,
      "ĠwithĠ": 4316,
      "è¯ķåĽ¾": 4317,
      "makesĠ": 4318,
      "æĿĳ": 4319,
      "èĥ½éĩı": 4320,
      "å¤§çº¦": 4321,
      "åİ»äºĨ": 4322,
      "ï¼ļĠâĢľ": 4323,
      "Ġcommun": 4324,
      "æµ·æ´ĭ": 4325,
      "ĠorĠ": 4326,
      "inceĠ": 4327,
      "ï¼ĮĠè¿ĻäºĽ": 4328,
      "æľīä¸ª": 4329,
      "ementĠ": 4330,
      "çŃīçŃī": 4331,
      "whoĠareĠ": 4332,
      "è¯ģæĺİ": 4333,
      "model": 4334,
      "program": 4335,
      "'veĠgot": 4336,
      "ç¯": 4337,
      "ingĠabout": 4338,
      "æľīæķĪ": 4339,
      "çļĦæ¸": 4340,
      "çĶ¨æĿ¥": 4341,
      "mos": 4342,
      "object": 4343,
      "éģĹ": 4344,
      "ox": 4345,
      "ï¼ĮĠå¤": 4346,
      "çĶµè§Ĩ": 4347,
      "åıĹåĪ°": 4348,
      "ofĠcourse,Ġ": 4349,
      "ge": 4350,
      "ä¸įåı¯èĥ½": 4351,
      "ä¸ĢæŃ¥": 4352,
      "ice.čĊ": 4353,
      "goingĠon": 4354,
      "ĠAndĠtheyĠ": 4355,
      "æĶ¯æĮģ": 4356,
      "Ġappro": 4357,
      "careĠ": 4358,
      "diffic": 4359,
      "ĠthatĠareĠ": 4360,
      "leftĠ": 4361,
      "bro": 4362,
      ",ĠheĠ": 4363,
      "èĦı": 4364,
      "åĿļ": 4365,
      "çļĦæĮ": 4366,
      "wasĠtheĠ": 4367,
      "å¥¹çļĦ": 4368,
      "gi": 4369,
      "çĽ¸åħ³": 4370,
      "ï¼ĮĠå¥¹": 4371,
      "beĠtheĠ": 4372,
      "ran": 4373,
      "ĠaĠveryĠ": 4374,
      "æ´ŀ": 4375,
      "viol": 4376,
      "èĢĮè¨Ģ": 4377,
      "ĠasĠwell": 4378,
      "ç¬¬äºĮ": 4379,
      "ordin": 4380,
      "ï¼ĮĠæĺ¯": 4381,
      "ĠthoughtĠ": 4382,
      "itself": 4383,
      "ĠOkay": 4384,
      "è®¾å¤ĩ": 4385,
      "Ġåĩł": 4386,
      "liter": 4387,
      "pointĠ": 4388,
      "èĪª": 4389,
      "æ½ľ": 4390,
      "ĠcomeĠ": 4391,
      "ä¼ļæľī": 4392,
      "ä¿ĿæĮģ": 4393,
      "çĶ·äºº": 4394,
      "500": 4395,
      "çĺ": 4396,
      "äººåı£": 4397,
      "entĠtoĠ": 4398,
      "rad": 4399,
      "åĢĴ": 4400,
      "ĠWhyĠ": 4401,
      "ness": 4402,
      "wit": 4403,
      "ĠThen": 4404,
      "et'sĠ": 4405,
      "ĠwithĠtheĠ": 4406,
      "moveĠ": 4407,
      "ugeĠ": 4408,
      "åłĤ": 4409,
      "çļĦç¡®": 4410,
      "fish": 4411,
      "half": 4412,
      "åºĹ": 4413,
      "ä¸Ńï¼Į": 4414,
      "seen": 4415,
      "æ¨¡åŀĭ": 4416,
      "cult": 4417,
      "lack": 4418,
      "çļĦåİŁåĽł": 4419,
      "eĠsh": 4420,
      "éĿ¢å¯¹": 4421,
      "å¹¶æ²¡æľī": 4422,
      "would": 4423,
      "æĺ¯å¦Ĥä½ķ": 4424,
      "step": 4425,
      "æīĺ": 4426,
      "Ġbillion": 4427,
      "é¡º": 4428,
      "åĲįåŃĹ": 4429,
      "åĮ»çĸĹ": 4430,
      "oot": 4431,
      "æŀĲ": 4432,
      "åĪ«äºº": 4433,
      "vision": 4434,
      "çļĦæĬĢ": 4435,
      "probablyĠ": 4436,
      "said": 4437,
      "vent": 4438,
      "listen": 4439,
      "ç§ģ": 4440,
      "å¤§å¤ļæķ°": 4441,
      "ourselv": 4442,
      "è·Ŀ": 4443,
      "è¶³å¤Ł": 4444,
      "ĠThere'sĠ": 4445,
      "sortĠofĠ": 4446,
      "ĠthinkĠaboutĠ": 4447,
      "overĠ": 4448,
      "ror": 4449,
      "ãĢĤĠæĪĳ": 4450,
      "ically": 4451,
      "shar": 4452,
      "åĽŀçŃĶ": 4453,
      "right?čĊ": 4454,
      "ç«ł": 4455,
      "ciet": 4456,
      "è¾¾åĪ°": 4457,
      "month": 4458,
      "çļĦæ¯ı": 4459,
      "intoĠtheĠ": 4460,
      "è¯Ĺ": 4461,
      "ĠIĠcan": 4462,
      "rap": 4463,
      "éĹ®é¢ĺãĢĤčĊ": 4464,
      "Ġåħ¶å®ŀ": 4465,
      "14": 4466,
      "foundĠ": 4467,
      "Ġåħ³äºİ": 4468,
      "adeĠ": 4469,
      "æ¸Ĳ": 4470,
      "mother": 4471,
      "Ġinst": 4472,
      "ĠAndĠitĠ": 4473,
      "çĽ´æİ¥": 4474,
      "éº»": 4475,
      "çĶµåŃĲ": 4476,
      "åĽ¾çīĩ": 4477,
      "èĩ³å°ĳ": 4478,
      "solut": 4479,
      "16": 4480,
      "åºĶçĶ¨": 4481,
      "æĽ´å¤ļçļĦ": 4482,
      "stre": 4483,
      "çī©ç§į": 4484,
      "å§Ĩ": 4485,
      "eful": 4486,
      "forc": 4487,
      "ä¸ŃĠ": 4488,
      ",ĠandĠitĠ": 4489,
      "æŃ£ç¡®": 4490,
      "ocean": 4491,
      "next": 4492,
      "ï¼Įè¿Ļä¸ª": 4493,
      "ualĠ": 4494,
      "weĠareĠ": 4495,
      "ĠæĪĳä»¬åľ¨": 4496,
      "æ´¾": 4497,
      "å±ĭ": 4498,
      "complex": 4499,
      "extra": 4500,
      "åªĴä½ĵ": 4501,
      "lat": 4502,
      "ï¼ĮĠä»İ": 4503,
      "being": 4504,
      "æµĭè¯ķ": 4505,
      "attern": 4506,
      ",Ġthat'sĠ": 4507,
      "in.čĊ": 4508,
      "outĠofĠtheĠ": 4509,
      "æįķ": 4510,
      "ble.čĊ": 4511,
      "ĠforĠ": 4512,
      "ĠtalkĠaboutĠ": 4513,
      "ern": 4514,
      "ï¼Įè¿ĻäºĽ": 4515,
      ",Ġhow": 4516,
      "è°·": 4517,
      "ĠalmostĠ": 4518,
      "Ġactiv": 4519,
      "åĪ©äºļ": 4520,
      "çĩ": 4521,
      "sometim": 4522,
      "èĦļ": 4523,
      "photo": 4524,
      "undred": 4525,
      "èĽĭ": 4526,
      "æĶ¾åľ¨": 4527,
      "dri": 4528,
      "çļĦæ²": 4529,
      "Ġbrain": 4530,
      "åģļä»Ģä¹Ī": 4531,
      "story": 4532,
      "completelyĠ": 4533,
      "IĠcan": 4534,
      "è®©äºº": 4535,
      "ĠareĠtheĠ": 4536,
      "äº¤æµģ": 4537,
      "æĩ": 4538,
      "ĠableĠtoĠ": 4539,
      "çļĦçŁ": 4540,
      "Ġtime,Ġ": 4541,
      "ideas": 4542,
      "ä¾ĭå¦Ĥ": 4543,
      "èĢģå¸Ī": 4544,
      "gam": 4545,
      "è´¢": 4546,
      "éĩįè¦ģçļĦ": 4547,
      "ĠtoĠdoĠ": 4548,
      "eck": 4549,
      "è¿ŀæİ¥": 4550,
      "Ġmed": 4551,
      "ï¼ĮĠå®ĥä»¬": 4552,
      "éļĲ": 4553,
      "ç²¾ç¥ŀ": 4554,
      "clim": 4555,
      "father": 4556,
      "ary": 4557,
      "ĠyouĠcan": 4558,
      "çļĦç¾": 4559,
      "comesĠ": 4560,
      "éĽ¶": 4561,
      "obvi": 4562,
      "aĠf": 4563,
      "ton": 4564,
      "Ġä¸º": 4565,
      ",ĠisĠ": 4566,
      "å¹»": 4567,
      "IĠwouldĠ": 4568,
      "incredi": 4569,
      "busin": 4570,
      "eĠthereĠ": 4571,
      "éĢı": 4572,
      "ĠButĠtheĠ": 4573,
      "ĠHere": 4574,
      "ĠcameĠ": 4575,
      "çī©çĲĨ": 4576,
      "ait": 4577,
      "å¥ĸ": 4578,
      "çİ°è±¡": 4579,
      "æ´Ľ": 4580,
      "ç»Ļä½łä»¬": 4581,
      "inĠmyĠ": 4582,
      "çļĦçº": 4583,
      "oday": 4584,
      "åįģå¹´": 4585,
      "ĠshouldĠ": 4586,
      "æĬķèµĦ": 4587,
      "iddleĠ": 4588,
      "reatĠ": 4589,
      "åĳ¢ï¼Ł": 4590,
      "äºĴèģĶ": 4591,
      "ãĢĤæĪĳ": 4592,
      "ä¸Ģå¼ł": 4593,
      "å¼ĥ": 4594,
      "ĠSom": 4595,
      "æĽ¼": 4596,
      "ĠSoĠwhatĠ": 4597,
      "èį¯çī©": 4598,
      "eith": 4599,
      "ral": 4600,
      "æĹ¶ä»£": 4601,
      "both": 4602,
      "éļıçĿĢ": 4603,
      "ofĠtheseĠ": 4604,
      "æĹ§": 4605,
      "everythingĠ": 4606,
      "èĮĥåĽ´": 4607,
      "Ġåĥı": 4608,
      "ä¹±": 4609,
      "cin": 4610,
      "often": 4611,
      "ĠAl": 4612,
      "æĺ¯ä¸Ģç§į": 4613,
      "ĠtoldĠ": 4614,
      "çļĦçħ§": 4615,
      "éĵ¶": 4616,
      "èĳĹ": 4617,
      "bon": 4618,
      "lish": 4619,
      "ĠawayĠ": 4620,
      "çīĻ": 4621,
      "æĭŁ": 4622,
      "æľ¬èº«": 4623,
      "sĠtoĠbeĠ": 4624,
      "youĠseeĠ": 4625,
      "Ġmod": 4626,
      "çļĦä¸Ģéĥ¨åĪĨ": 4627,
      "ĠthroughĠtheĠ": 4628,
      "çĨŁ": 4629,
      "U.S": 4630,
      "iat": 4631,
      "yingĠ": 4632,
      "è¿ª": 4633,
      "assĠ": 4634,
      "åĨ·": 4635,
      "ĠworldĠ": 4636,
      "Ġpercent": 4637,
      "çŃĶæ¡Ī": 4638,
      "ĠæĽ´": 4639,
      "inal": 4640,
      "åĪ¤": 4641,
      "ä¹Łä¸į": 4642,
      "çļĦç½": 4643,
      "åħ¶å®ĥ": 4644,
      "ç¬Ķ": 4645,
      "ĠtheĠfirst": 4646,
      "udi": 4647,
      "Ġèĥ½": 4648,
      "impro": 4649,
      "ç§ĺ": 4650,
      "Ġadd": 4651,
      "ers,Ġ": 4652,
      "Ġsur": 4653,
      "Ġcal": 4654,
      "å·§": 4655,
      "ĠbutĠ": 4656,
      "evolution": 4657,
      "yearsĠ": 4658,
      "Ġalong": 4659,
      "se.čĊ": 4660,
      "èĿ": 4661,
      "orth": 4662,
      "ä¸ªæľĪ": 4663,
      "ä¸Ĭåİ»": 4664,
      "è¯´è¿ĩ": 4665,
      "Ġå·²": 4666,
      "éĨĴ": 4667,
      "åĪ°åºķ": 4668,
      "Ġdon": 4669,
      "Ġthat,Ġ": 4670,
      "ĠæĪĳä»¬éľĢè¦ģ": 4671,
      "èĦ¸": 4672,
      "åĪĽæĸ°": 4673,
      "neverĠ": 4674,
      "åħħæ»¡": 4675,
      "è¯Ĭ": 4676,
      "eĠsomeĠ": 4677,
      "ç«Ł": 4678,
      "åĨħå®¹": 4679,
      "Ġchildren": 4680,
      "Ġhealth": 4681,
      "Ġåĵ": 4682,
      "å¥Ĺ": 4683,
      "éĢĢ": 4684,
      "çļĦç©": 4685,
      "æĺİæĺ¾": 4686,
      "è¡¨çİ°": 4687,
      "six": 4688,
      "ru": 4689,
      "ĠæīĢæľī": 4690,
      "child": 4691,
      "ĠthisĠis": 4692,
      "knowled": 4693,
      "è®©ä½ł": 4694,
      "ä¼ģä¸ļ": 4695,
      "foc": 4696,
      "ĠV": 4697,
      "äººï¼Į": 4698,
      "å¥ı": 4699,
      "è¿ĩæĿ¥": 4700,
      "event": 4701,
      "éĺ»": 4702,
      "whenĠweĠ": 4703,
      "çļĦæĸĩ": 4704,
      "èįī": 4705,
      "hon": 4706,
      "Ġä»Ĭå¤©": 4707,
      "ins": 4708,
      "strong": 4709,
      "Ġperson": 4710,
      "199": 4711,
      "åı¦å¤ĸ": 4712,
      "èľĤ": 4713,
      "onceĠ": 4714,
      "åľ¨è¿Ļä¸ª": 4715,
      "éº¦": 4716,
      "reach": 4717,
      "ï¼ĮĠè¿Ļæĺ¯": 4718,
      "ç§Ĵ": 4719,
      "è¡¡": 4720,
      "ann": 4721,
      "17": 4722,
      "ofĠall": 4723,
      "Ġwomen": 4724,
      "ĠsheĠ": 4725,
      "ossi": 4726,
      "astic": 4727,
      "Ġdesign": 4728,
      "ĠAndĠwhatĠ": 4729,
      "could": 4730,
      "è¿¹": 4731,
      "fund": 4732,
      "å¤ļçļĦ": 4733,
      "çĲĨè®º": 4734,
      "å½¢å¼ı": 4735,
      "èİ±": 4736,
      "flu": 4737,
      "ield": 4738,
      "uri": 4739,
      "éĴĪ": 4740,
      "dig": 4741,
      "reli": 4742,
      "beli": 4743,
      "eĠsaid,Ġ\"": 4744,
      "result": 4745,
      "deal": 4746,
      "Ġå¤§å®¶": 4747,
      "kindsĠofĠ": 4748,
      "bar": 4749,
      "det": 4750,
      "è®¿": 4751,
      "forĠm": 4752,
      "æ¬¾": 4753,
      "Well": 4754,
      "follow": 4755,
      "tom": 4756,
      "uation": 4757,
      "äºĪ": 4758,
      "usĠtoĠ": 4759,
      "å¿Ĩ": 4760,
      "å¢ŀåĬł": 4761,
      "amer": 4762,
      "ouslyĠ": 4763,
      "ia.čĊ": 4764,
      "ï¼ĮĠåı¯": 4765,
      "13": 4766,
      "Ġå½ĵæĪĳä»¬": 4767,
      "å¦ĩ": 4768,
      "åĽ¢éĺŁ": 4769,
      "Ġair": 4770,
      "ingsĠ": 4771,
      "éĢĶ": 4772,
      "Ġhop": 4773,
      "å½ĵçĦ¶": 4774,
      "çĮ©": 4775,
      "ĠdifferentĠ": 4776,
      "æ°¸è¿ľ": 4777,
      "Ġfam": 4778,
      "comm": 4779,
      "çģŃ": 4780,
      "åıĳçĶŁäºĨ": 4781,
      "çªģçĦ¶": 4782,
      "engineer": 4783,
      "ä¸įåĨį": 4784,
      "youĠcanĠ": 4785,
      "çĭĤ": 4786,
      "äºĨè¿Ļä¸ª": 4787,
      "goesĠ": 4788,
      "looked": 4789,
      "ĠæīĢä»¥ï¼Į": 4790,
      "havior": 4791,
      "Ġyou'reĠ": 4792,
      "ä¹Łä¼ļ": 4793,
      "rest": 4794,
      "èĦ±": 4795,
      "ĠInĠtheĠ": 4796,
      "certain": 4797,
      "ï¼ĮĠæľī": 4798,
      "ä¼´": 4799,
      "æ¯«": 4800,
      "å¾Īéļ¾": 4801,
      "åĬŁèĥ½": 4802,
      "é¼ł": 4803,
      "IĠwantĠtoĠ": 4804,
      "é£ŀæľº": 4805,
      "çļĦæ¼Ķ": 4806,
      "chem": 4807,
      "æĸ¯åĿ¦": 4808,
      "hadĠaĠ": 4809,
      "å·¨å¤§": 4810,
      "oog": 4811,
      "ouch": 4812,
      "åľ¨äºİ": 4813,
      "whenĠ": 4814,
      "verseĠ": 4815,
      "ĠAndĠthat'sĠ": 4816,
      "åħ³éĶ®": 4817,
      "ĠwholeĠ": 4818,
      "æĪĳä»¬æīĢ": 4819,
      "äººåĳĺ": 4820,
      "chit": 4821,
      "nowĠ": 4822,
      "makingĠ": 4823,
      "er,Ġ": 4824,
      "å¤ľ": 4825,
      "å¼±": 4826,
      "Ġbr": 4827,
      "ground": 4828,
      "enseĠ": 4829,
      "somethingĠthatĠ": 4830,
      "æĬĺ": 4831,
      "emotion": 4832,
      "å¾Īæľī": 4833,
      "è½®": 4834,
      "it'sĠnotĠ": 4835,
      "å¡ŀ": 4836,
      "decid": 4837,
      "numberĠofĠ": 4838,
      "åį±éĻ©": 4839,
      "Ġpol": 4840,
      "qual": 4841,
      "å½¢æĪĲ": 4842,
      "ĠoneĠ": 4843,
      "ĠthatĠwasĠ": 4844,
      "æ··": 4845,
      "Ġthere,Ġ": 4846,
      "é²ģ": 4847,
      "æķ£": 4848,
      "ument": 4849,
      "ç»ıå¸¸": 4850,
      "compan": 4851,
      "ension": 4852,
      "çļĦæĦıæĢĿ": 4853,
      "pati": 4854,
      "Ġthank": 4855,
      "åĴĮæĪĳ": 4856,
      "Ġä½łä¼ļ": 4857,
      "hasĠbeen": 4858,
      "åĳĬè¯īä½ł": 4859,
      "wantedĠtoĠ": 4860,
      "Ġmonth": 4861,
      "èĤ¯å®ļ": 4862,
      "few": 4863,
      "nameĠ": 4864,
      "goĠtoĠ": 4865,
      "ç»Ļä½ł": 4866,
      "Ġword": 4867,
      "è§Ħæ¨¡": 4868,
      "American": 4869,
      "äºĴèģĶç½ĳ": 4870,
      "ä¸Ģå¹´": 4871,
      "Ġcent": 4872,
      "æĹ¶ï¼Į": 4873,
      "day.čĊ": 4874,
      "æ¥¼": 4875,
      "national": 4876,
      "éĹŃ": 4877,
      "è¡£": 4878,
      "spac": 4879,
      "public": 4880,
      "ç®¡çĲĨ": 4881,
      "powerful": 4882,
      "å©ļ": 4883,
      ",Ġso": 4884,
      "éĿĴ": 4885,
      "åŁ¹": 4886,
      "Ġå¼Ģ": 4887,
      "relationship": 4888,
      "itution": 4889,
      "ä¹Łæľī": 4890,
      "æ°§": 4891,
      "æĮĳæĪĺ": 4892,
      "ç¡®å®ļ": 4893,
      "é¾Ļ": 4894,
      "ä»¥åĲİ": 4895,
      "Ġbefor": 4896,
      "çĭ±": 4897,
      "har": 4898,
      "requ": 4899,
      "åĦ¿ç«¥": 4900,
      "æİ¢ç´¢": 4901,
      "ä¸Ŀ": 4902,
      "sĠfrom": 4903,
      "æĿ¥çľĭ": 4904,
      "drug": 4905,
      "çļĦéĤ£": 4906,
      "ĠåĬ": 4907,
      "itĠtoĠ": 4908,
      "isĠnotĠ": 4909,
      "çļĦäººãĢĤčĊ": 4910,
      "ĠyouĠveryĠmuch": 4911,
      "cy": 4912,
      "rainĠ": 4913,
      "ä¸ĭéĿ¢": 4914,
      "Ġthings.čĊ": 4915,
      "explain": 4916,
      "çļĦç¤¾ä¼ļ": 4917,
      "mind": 4918,
      "ingĠinĠtheĠ": 4919,
      "çīĮ": 4920,
      "çĤ¸": 4921,
      "Ġçİ°åľ¨ï¼Į": 4922,
      "left": 4923,
      "youĠtoĠ": 4924,
      "å¹ķ": 4925,
      "æİĪ": 4926,
      "Ġacc": 4927,
      "åĳĬè¯īæĪĳ": 4928,
      "Ġspec": 4929,
      "åħ·æľī": 4930,
      "åĮħæĭ¬": 4931,
      "mal": 4932,
      "sĠup": 4933,
      "ers": 4934,
      "edĠthisĠ": 4935,
      ",ĠIĠw": 4936,
      "ä½¿å¾Ĺ": 4937,
      "åĽ°éļ¾": 4938,
      "suc": 4939,
      "æī©": 4940,
      "æĢ§ãĢĤčĊ": 4941,
      "ä½įç½®": 4942,
      "ç¥¨": 4943,
      "çĹħäºº": 4944,
      "éļ¾ä»¥": 4945,
      "åħ±åĲĮ": 4946,
      "born": 4947,
      "hor": 4948,
      "vol": 4949,
      "½ç®¡": 4950,
      "Ġ[": 4951,
      "ï¼ĮĠä»¥åıĬ": 4952,
      "åľ¨æĪĳ": 4953,
      "æĿ¥åĪ°": 4954,
      "çĿ¡": 4955,
      "spir": 4956,
      "çĽ¸åĲĮ": 4957,
      "åºĬ": 4958,
      "ence,Ġ": 4959,
      "Ġtop": 4960,
      "you.čĊ": 4961,
      "Ġthemselv": 4962,
      "çļĦä¸ľè¥¿ãĢĤčĊ": 4963,
      "ĠtheirĠown": 4964,
      "çļĦæĶ¿": 4965,
      "Ġbetter": 4966,
      "eeĠ": 4967,
      "Ġant": 4968,
      "very,Ġ": 4969,
      "ilar": 4970,
      "é¢Ħæµĭ": 4971,
      "Ġäºİæĺ¯": 4972,
      "lookĠatĠtheĠ": 4973,
      "driv": 4974,
      "å´": 4975,
      "ory": 4976,
      "è¦ģæ±Ĥ": 4977,
      "urb": 4978,
      "è¡¨è¾¾": 4979,
      "å¢Ļ": 4980,
      "åĶ±": 4981,
      "æ¬§æ´²": 4982,
      "hi": 4983,
      "meas": 4984,
      "æ¹": 4985,
      "osp": 4986,
      "éĻĨ": 4987,
      "éľĩ": 4988,
      "ç¢³": 4989,
      "Ġåħ¶ä¸Ń": 4990,
      "ideaĠ": 4991,
      "onĠaĠ": 4992,
      "çľĭåĪ°çļĦ": 4993,
      "collect": 4994,
      ",Ġwith": 4995,
      "ament": 4996,
      "ĠfromĠtheĠ": 4997,
      "grad": 4998,
      "çľ¼çĿ": 4999,
      "Ġæ¯Ķ": 5000,
      "Ġä½ľä¸º": 5001,
      "çļĦåŃ©åŃĲ": 5002,
      "å¼Ħ": 5003,
      "åĪĨæŀĲ": 5004,
      "é¡µ": 5005,
      "ĠCA:": 5006,
      "å»ºéĢł": 5007,
      "increas": 5008,
      "ä¸Ĭï¼Į": 5009,
      "çĪ¸": 5010,
      "çļĦæķĻ": 5011,
      "explor": 5012,
      "çŀ": 5013,
      "inĠf": 5014,
      "ãĢĮ": 5015,
      "Ġminut": 5016,
      "æĪĸæĺ¯": 5017,
      "åĩıå°ĳ": 5018,
      "ãĢį": 5019,
      "éĩİ": 5020,
      "forĠaĠ": 5021,
      "æĥ§": 5022,
      "ĠWeĠcan": 5023,
      "Ġweek": 5024,
      "ä¸¥éĩį": 5025,
      "elseĠ": 5026,
      "éĢĲ": 5027,
      "Ġbelie": 5028,
      "å¯¼èĩ´": 5029,
      "æ¢¦": 5030,
      "çļĦçħ§çīĩ": 5031,
      "çļĦçĶŁæ´»": 5032,
      "å®Ĺ": 5033,
      "åľ°åĽ¾": 5034,
      "æīĭæľ¯": 5035,
      "ä¸įå¾Ĺä¸į": 5036,
      "rag": 5037,
      "ityĠandĠ": 5038,
      "Ġç¬¬äºĮ": 5039,
      "æ¤įçī©": 5040,
      "Ġcoll": 5041,
      "esĠinĠtheĠ": 5042,
      "çŁ¥è¯Ĩ": 5043,
      "ĠtheĠsam": 5044,
      "çĶ±äºİ": 5045,
      "ä¹Ŀ": 5046,
      "çļĦæĻ": 5047,
      "inĠour": 5048,
      "è°ĥæŁ¥": 5049,
      "social": 5050,
      "åĭĴ": 5051,
      "Ġbetween": 5052,
      "äºĨæĪĳä»¬": 5053,
      "ä¼°": 5054,
      "å°¼äºļ": 5055,
      "é¸Ł": 5056,
      "otĠ": 5057,
      "ä¸įæĥ³": 5058,
      ",ĠandĠIĠ": 5059,
      "anger": 5060,
      "izedĠ": 5061,
      "guy": 5062,
      "ï¼Įä¸Ģä¸ª": 5063,
      "one,Ġ": 5064,
      "æ°ĶåĢĻ": 5065,
      "figureĠ": 5066,
      "pick": 5067,
      "åľĪ": 5068,
      "ä¸Ĭå¸Ŀ": 5069,
      "here,Ġ": 5070,
      "peopl": 5071,
      "break": 5072,
      "Ġcountri": 5073,
      "aĠm": 5074,
      "-s": 5075,
      "Ġè¿ĺ": 5076,
      "å®Ŀ": 5077,
      "stateĠ": 5078,
      "æĹ¦": 5079,
      "éĩĮãĢĤčĊ": 5080,
      "å³": 5081,
      "Ġtest": 5082,
      "çļĦä¿¡æģ¯": 5083,
      "ingĠofĠ": 5084,
      "ä½łåľ¨": 5085,
      "imat": 5086,
      "able": 5087,
      "ive,Ġ": 5088,
      "éĶĢ": 5089,
      "ĠaĠcoup": 5090,
      "Ġé¦ĸåħĪ": 5091,
      "yĠisĠ": 5092,
      "areĠtheĠ": 5093,
      "ĠAf": 5094,
      "Ġcl": 5095,
      "çļĦç²": 5096,
      "å¼Ģåıĳ": 5097,
      "Ġgrow": 5098,
      "æł¹æį®": 5099,
      "åĪļåĪļ": 5100,
      "21": 5101,
      "Europ": 5102,
      "uel": 5103,
      "ally.čĊ": 5104,
      "ett": 5105,
      "ĠWe'veĠ": 5106,
      "ually,Ġ": 5107,
      "vill": 5108,
      "çļĦæ¨¡": 5109,
      "eĠthanĠ": 5110,
      "howĠtoĠ": 5111,
      ",ĠthisĠisĠ": 5112,
      "dur": 5113,
      "æĺ¯æľī": 5114,
      "s,ĠweĠ": 5115,
      "everybodyĠ": 5116,
      "erg": 5117,
      ",ĠandĠthatĠ": 5118,
      "çĻ»": 5119,
      "éĽĦ": 5120,
      "sider": 5121,
      "...čĊ": 5122,
      "natural": 5123,
      "landĠ": 5124,
      "åģı": 5125,
      "compl": 5126,
      "ç»ıè¿ĩ": 5127,
      ",Ġwhat": 5128,
      "å¥³äºº": 5129,
      "æ¼«": 5130,
      "æ¶²": 5131,
      "è¿Ļä¸ĢçĤ¹": 5132,
      "Ġplac": 5133,
      "NewĠYork": 5134,
      ",Ġto": 5135,
      "sist": 5136,
      "everything": 5137,
      "çĻĮçĹĩ": 5138,
      ",ĠyouĠ": 5139,
      "åĪº": 5140,
      "Ġdat": 5141,
      "ationĠofĠ": 5142,
      "provid": 5143,
      "ĠOur": 5144,
      "udden": 5145,
      "Ġadv": 5146,
      "avor": 5147,
      "æĵį": 5148,
      "homeĠ": 5149,
      "sameĠ": 5150,
      "éĿĻ": 5151,
      "åŁĥ": 5152,
      "ç³ķ": 5153,
      "åĳ¨åĽ´": 5154,
      "çľ¼çĿĽ": 5155,
      "imilar": 5156,
      "å¤§éĥ¨åĪĨ": 5157,
      "beh": 5158,
      "likeĠthat": 5159,
      "éļľ": 5160,
      "work.čĊ": 5161,
      "studi": 5162,
      "ĠtheseĠs": 5163,
      "chitect": 5164,
      "Th": 5165,
      "eb": 5166,
      "çļĦæ³": 5167,
      "åįł": 5168,
      "youĠcanĠse": 5169,
      "åķĨä¸ļ": 5170,
      "fectĠ": 5171,
      "ni": 5172,
      "pot": 5173,
      "Ġä¸ºäºĨ": 5174,
      "loc": 5175,
      "çĽĺ": 5176,
      "ĠgiveĠ": 5177,
      "æķ°åŃ¦": 5178,
      "çĮľ": 5179,
      "simpl": 5180,
      "ĠæĪĳæĺ¯": 5181,
      "åĩºçļĦ": 5182,
      "ç»ĦæĪĲ": 5183,
      "æŁĲäºĽ": 5184,
      "cle": 5185,
      "technolog": 5186,
      "ä»ª": 5187,
      "icat": 5188,
      "ï¼ĮæĪĳæĥ³": 5189,
      "éĽ¨": 5190,
      "èģª": 5191,
      "Ġåģļ": 5192,
      "ali": 5193,
      "char": 5194,
      "èī¯": 5195,
      "èī²çļĦ": 5196,
      "ä¼łæĴŃ": 5197,
      "èĴĤ": 5198,
      "ï¼Įå°±": 5199,
      "rock": 5200,
      "ential": 5201,
      "conv": 5202,
      "Ġåħ¨": 5203,
      "ĠåŁº": 5204,
      "Ġoff": 5205,
      "ĠItĠwas": 5206,
      "backĠtoĠ": 5207,
      "çļĦæ°´": 5208,
      ",Ġif": 5209,
      "åĽº": 5210,
      "æľĢè¿ĳ": 5211,
      "perhap": 5212,
      "ä¸ĢæĿ¡": 5213,
      "åı¯ä»¥çľĭåĪ°": 5214,
      "åħ¨ä¸ĸçķĮ": 5215,
      "ç¬¬ä¸Ģä¸ª": 5216,
      "æĲŀ": 5217,
      "å·¨å¤§çļĦ": 5218,
      "-year": 5219,
      "death": 5220,
      "rich": 5221,
      "çļĦè¿ĩç¨ĭ": 5222,
      "æľīçĿĢ": 5223,
      "æĪĸè®¸": 5224,
      "mic": 5225,
      "ĠthatĠyou": 5226,
      "å½©": 5227,
      "out.čĊ": 5228,
      "æµª": 5229,
      "éĢłæĪĲ": 5230,
      "æĩĤ": 5231,
      "ï¼ĮæĪĸèĢħ": 5232,
      "å¾Ħ": 5233,
      "chi": 5234,
      "ĠThisĠisĠtheĠ": 5235,
      "eet": 5236,
      "Ġaut": 5237,
      "ä½ĵéªĮ": 5238,
      "Ġanswer": 5239,
      "iousĠ": 5240,
      "ä¸įéľĢè¦ģ": 5241,
      "çİ°ä»£": 5242,
      "å®ĥãĢĤčĊ": 5243,
      "ultĠ": 5244,
      "see": 5245,
      "å½ĵåľ°": 5246,
      "åıªèĥ½": 5247,
      "ä¸Ģæ®µ": 5248,
      "electric": 5249,
      "pe": 5250,
      "¹ģ": 5251,
      "road": 5252,
      "å¿«ä¹Ĳ": 5253,
      "stillĠ": 5254,
      "Ġå¾Īå¤ļ": 5255,
      "èļģ": 5256,
      "music": 5257,
      "zer": 5258,
      "Ġtow": 5259,
      "edĠmeĠ": 5260,
      "s,Ġwhich": 5261,
      "éģĵå¾·": 5262,
      "ĠWeĠhaveĠ": 5263,
      "ä¸Ģæł·ãĢĤčĊ": 5264,
      "ç§°ä¸º": 5265,
      "ĠaĠway": 5266,
      "çĩĥ": 5267,
      ",Ġthat": 5268,
      "İčĊ": 5269,
      "äºĭçī©": 5270,
      "å¾Īéĩįè¦ģ": 5271,
      "åħ¬åħ±": 5272,
      "fall": 5273,
      "plant": 5274,
      "æ°ĳä¸»": 5275,
      "ä½ıåľ¨": 5276,
      "eadĠofĠ": 5277,
      "nal": 5278,
      "Ġtrain": 5279,
      "esĠand": 5280,
      "neigh": 5281,
      "æģ©": 5282,
      "å¿ĥçĲĨ": 5283,
      "humanĠ": 5284,
      "Ġsociet": 5285,
      "è½¯ä»¶": 5286,
      "çļĦæĬĢæľ¯": 5287,
      ":Ġ\"": 5288,
      "aĠandĠ": 5289,
      "olec": 5290,
      "rais": 5291,
      "åĢ¾": 5292,
      "åĿĲåľ¨": 5293,
      "æĭħå¿ĥ": 5294,
      "éĿ¢ä¸´": 5295,
      "é»Ħ": 5296,
      "æĤ¨": 5297,
      "éĻ¤äºĨ": 5298,
      "sĠor": 5299,
      "çļĦçŃ": 5300,
      "heĠwasĠ": 5301,
      "iredĠ": 5302,
      "æĭįæĳĦ": 5303,
      "herĠ": 5304,
      "sĠisĠ": 5305,
      "rist": 5306,
      "å¿ĺ": 5307,
      "comingĠ": 5308,
      "Ġgen": 5309,
      "ĠweĠcan": 5310,
      "imagineĠ": 5311,
      "ĠpercentĠofĠtheĠ": 5312,
      "çĳŀ": 5313,
      "è¾Ĩ": 5314,
      "partĠofĠtheĠ": 5315,
      "...": 5316,
      "resourc": 5317,
      "ä¿¡åı·": 5318,
      "ĠIndi": 5319,
      "ä»»åĬ¡": 5320,
      "largeĠ": 5321,
      "fortun": 5322,
      "ajor": 5323,
      "Ġtreat": 5324,
      "æľĹ": 5325,
      "withoutĠ": 5326,
      "do.čĊ": 5327,
      "ä»İæĿ¥": 5328,
      "çĪĨ": 5329,
      "vert": 5330,
      "Ġmy": 5331,
      "ä¼¼ä¹İ": 5332,
      "ĠaĠlittleĠbitĠ": 5333,
      "ateg": 5334,
      "poor": 5335,
      "çĻ¾åĪĨä¹ĭ": 5336,
      "Ġplan": 5337,
      "çļĦäºĭæĥħãĢĤčĊ": 5338,
      "ĠtheseĠthing": 5339,
      "çļĦçĪ¶": 5340,
      "cul": 5341,
      "dark": 5342,
      "Ġhigh": 5343,
      "neighbor": 5344,
      "yet": 5345,
      "ï¼ĮĠè¿Ļä¸ª": 5346,
      "ace": 5347,
      "ï¼ĮĠå¯¹": 5348,
      "ung": 5349,
      "çĽ¸äºĴ": 5350,
      "24": 5351,
      "ai": 5352,
      "last": 5353,
      "Ġçľĭ": 5354,
      "--ĠtheĠ": 5355,
      "ĠHereĠ": 5356,
      "everyoneĠ": 5357,
      "experienceĠ": 5358,
      "ialĠ": 5359,
      "Ĺ¯": 5360,
      "è¿«": 5361,
      "å®£": 5362,
      "ç»ķ": 5363,
      "usedĠ": 5364,
      "Ġpeople": 5365,
      "çļĦç©º": 5366,
      "rid": 5367,
      ",ĠmyĠ": 5368,
      "èĢĹ": 5369,
      "opt": 5370,
      "é¢Ŀ": 5371,
      "å¥½åĥı": 5372,
      "åĬĽçļĦ": 5373,
      "å®ļä¹ī": 5374,
      "çĸ«": 5375,
      "è¯ķçĿĢ": 5376,
      "defin": 5377,
      "çĶ¨äºİ": 5378,
      "playĠ": 5379,
      "conf": 5380,
      "èĢħãĢĤčĊ": 5381,
      "sĠthatĠweĠ": 5382,
      "çĶŁæ´»åľ¨": 5383,
      "ç²ī": 5384,
      "æ¯įäº²": 5385,
      "é¹": 5386,
      "ĠIĠf": 5387,
      "aur": 5388,
      "tal": 5389,
      "äºĭä»¶": 5390,
      "ĠLet'sĠ": 5391,
      "Ġå·²ç»ı": 5392,
      "een": 5393,
      "ä¸įè¦ģ": 5394,
      "èµĸ": 5395,
      "soĠmuch": 5396,
      "è¢ĭ": 5397,
      "ĠatĠle": 5398,
      "çĸ¯": 5399,
      "box": 5400,
      "videoĠ": 5401,
      "Ġteam": 5402,
      "ham": 5403,
      "loy": 5404,
      "ï¼ĮĠåĴĮ": 5405,
      "æ²ī": 5406,
      "Ġhist": 5407,
      "è¿Ļæł·åģļ": 5408,
      "iesĠofĠ": 5409,
      "ifĠyou'reĠ": 5410,
      "ĠThankĠyouĠveryĠmuch": 5411,
      "writ": 5412,
      "I'dĠ": 5413,
      "pay": 5414,
      "sĠaboutĠ": 5415,
      "æľīä»Ģä¹Ī": 5416,
      "ï¼ĮĠåĪ": 5417,
      "Ġåľ¨æĪĳ": 5418,
      "ĠonĠ": 5419,
      "ĠæĪĳè¦ģ": 5420,
      "ĠAndĠthisĠisĠ": 5421,
      "åĬĽãĢĤčĊ": 5422,
      "éĽ·": 5423,
      "ibleĠ": 5424,
      "¤åħ¶": 5425,
      "äºĨå¾Īå¤ļ": 5426,
      "ĠputĠ": 5427,
      "çĶŁåŃĺ": 5428,
      "ession": 5429,
      "ç³»åĪĹ": 5430,
      "protect": 5431,
      "äººčĊ": 5432,
      "netĠ": 5433,
      "çŁ¥éģĵï¼Į": 5434,
      "æĦŁåħ´è¶£": 5435,
      "ance.čĊ": 5436,
      "é»ĺ": 5437,
      "Eng": 5438,
      "sl": 5439,
      "æĿ¥çļĦ": 5440,
      "èĭı": 5441,
      "ç¬¬ä¸Ģ": 5442,
      "çĮ®": 5443,
      "é£İéĻ©": 5444,
      "sec": 5445,
      "viv": 5446,
      "æĺ¯æľĢ": 5447,
      "åĬ³": 5448,
      "ä¹Łåı¯ä»¥": 5449,
      "æŃ£å¸¸": 5450,
      "ĠAndĠIĠthink": 5451,
      "éĺ¶æ®µ": 5452,
      "draw": 5453,
      "ĠçĶļèĩ³": 5454,
      "going": 5455,
      ",ĠI'mĠ": 5456,
      "ĠPeopleĠ": 5457,
      "ç¼©": 5458,
      "ĠturnsĠout": 5459,
      "å¦Īå¦Ī": 5460,
      "s.\"čĊ": 5461,
      "ä¸ĬĠ": 5462,
      "å¾Īå¿«": 5463,
      "çļĦçģ": 5464,
      "ĠéĤ£å°±æĺ¯": 5465,
      "Ġåľ": 5466,
      "èĢ³": 5467,
      "ĠinĠaĠ": 5468,
      "guyĠ": 5469,
      "people.čĊ": 5470,
      "difficult": 5471,
      "nessĠ": 5472,
      "recogn": 5473,
      "leep": 5474,
      "è¡ĮæĺŁ": 5475,
      "æ»ĭ": 5476,
      "åłĨ": 5477,
      "ï¼Įå¦Ĥæŀľä½ł": 5478,
      "lotsĠofĠ": 5479,
      "color": 5480,
      "ile": 5481,
      "sĠwhoĠ": 5482,
      "ãĢĤĠæĪĳä»¬": 5483,
      "readĠ": 5484,
      "Ġmind": 5485,
      "ĠèĢĮæĺ¯": 5486,
      "indust": 5487,
      "å»¶": 5488,
      "showĠyou": 5489,
      "ration": 5490,
      "eĠin": 5491,
      "Ġå¿": 5492,
      "orig": 5493,
      ",ĠandĠit'sĠ": 5494,
      "ustain": 5495,
      "æıĲé«ĺ": 5496,
      "veĠthatĠ": 5497,
      "èģªæĺİ": 5498,
      "knowĠ": 5499,
      "couldĠbeĠ": 5500,
      "Ġè®©æĪĳ": 5501,
      "æĲľ": 5502,
      "planet": 5503,
      "mem": 5504,
      "mustĠ": 5505,
      "paper": 5506,
      "çļĦæĪĲ": 5507,
      "ortĠofĠ": 5508,
      "æĸĹ": 5509,
      "åĬłåħ¥": 5510,
      "food": 5511,
      "ofĠthatĠ": 5512,
      "ä¹³": 5513,
      "ĠtoĠmakeĠ": 5514,
      "æĿ°": 5515,
      "éĩĮæĸ¯": 5516,
      "æĥ³æĥ³": 5517,
      "å®ŀéĻħ": 5518,
      "sequ": 5519,
      "weenĠ": 5520,
      "åĮĸåŃ¦": 5521,
      "è¿Ļä¹Īåģļ": 5522,
      "student": 5523,
      "curr": 5524,
      "atĠtheĠ": 5525,
      "æĹģ": 5526,
      "åİĤ": 5527,
      "upĠwith": 5528,
      "è´µ": 5529,
      "è®©ä»ĸä»¬": 5530,
      "ĠYou'reĠ": 5531,
      "organization": 5532,
      "key": 5533,
      "rang": 5534,
      "çļĦåĽ½å®¶": 5535,
      "ä½Ľ": 5536,
      "ï¼ĮĠä¸Ģä¸ª": 5537,
      "whether": 5538,
      "radi": 5539,
      "class": 5540,
      "çĥĪ": 5541,
      "livingĠ": 5542,
      "ä¹ĭéĹ´çļĦ": 5543,
      "çļĦæĢĿ": 5544,
      "Ġcreat": 5545,
      "Ġtool": 5546,
      "åŃĲéĩĮ": 5547,
      "ç»ĻæĪĳä»¬": 5548,
      "ï¼ĮĠåıª": 5549,
      "èħ¿": 5550,
      "ĠsomethingĠ": 5551,
      "exactlyĠ": 5552,
      "çļĦç½ĳ": 5553,
      "ĠæĪĳè§īå¾Ĺ": 5554,
      "åĮ»éĻ¢": 5555,
      "æľ¬ä¹¦": 5556,
      "ead": 5557,
      "æī§": 5558,
      "ä»¥ä¸º": 5559,
      "æ¯Ľ": 5560,
      "notĠtheĠ": 5561,
      "èĻļ": 5562,
      "æĪ¿éĹ´": 5563,
      "governmentĠ": 5564,
      "Ġsaid,Ġ\"": 5565,
      "è¯´æĺİ": 5566,
      "æ¯ķ": 5567,
      "å¾Īå¤§": 5568,
      "ivelyĠ": 5569,
      "yourself": 5570,
      "Ġåı¯èĥ½": 5571,
      "ium": 5572,
      "ä¸Ģåıª": 5573,
      "çĶŁæĢģ": 5574,
      "ĠSoĠthisĠ": 5575,
      "è®Ńç»ĥ": 5576,
      "withĠaĠ": 5577,
      "ĠYeah": 5578,
      "ĠCan": 5579,
      "è¯ķéªĮ": 5580,
      "æĶ¶éĽĨ": 5581,
      "likeĠthis.čĊ": 5582,
      "es.": 5583,
      "ingĠitĠ": 5584,
      "æĬ±": 5585,
      "now.čĊ": 5586,
      "cost": 5587,
      "ï¼Įå¥¹": 5588,
      "extrem": 5589,
      "athem": 5590,
      "Indi": 5591,
      "éĿ©åĳ½": 5592,
      "èĸ": 5593,
      "æĺ¯æĢİä¹Ī": 5594,
      "æľīå¤ļ": 5595,
      "ä¸ĭåİ»": 5596,
      "ä»Ģä¹Īï¼ŁčĊ": 5597,
      "Ġappl": 5598,
      "Goog": 5599,
      "aĠp": 5600,
      ",Ġfor": 5601,
      "ä¸ĬčĊ": 5602,
      "æĸ¹æ¡Ī": 5603,
      ",ĠI'm": 5604,
      ",ĠtheseĠ": 5605,
      "pur": 5606,
      "çļĦå½±åĵį": 5607,
      "çļĦæ´": 5608,
      "IĠhaveĠ": 5609,
      "èģĬ": 5610,
      "pri": 5611,
      "éĻĦ": 5612,
      "éľ²": 5613,
      "lookĠ": 5614,
      "looksĠ": 5615,
      "possibleĠ": 5616,
      "esĠaĠ": 5617,
      "ä¸įä»ħ": 5618,
      "ä»¥æĿ¥": 5619,
      "ĠSomeĠ": 5620,
      "å¹´ï¼Į": 5621,
      "ç»ıéªĮ": 5622,
      "è¡¨æ¼Ķ": 5623,
      "åĽłç´ł": 5624,
      "æīĵå¼Ģ": 5625,
      "åĲĦä½į": 5626,
      "ĠThankĠyou": 5627,
      "ä¸ĵå®¶": 5628,
      "çļĦç¾İ": 5629,
      "Al": 5630,
      "ĠanĠa": 5631,
      "rev": 5632,
      "ï¼ĮĠè¿ĺæľī": 5633,
      "Ġcomput": 5634,
      "çĭĹ": 5635,
      "%çļĦ": 5636,
      "iallyĠ": 5637,
      "ç¹ģ": 5638,
      "çİĭ": 5639,
      "ĠAndĠit'sĠ": 5640,
      "æŀª": 5641,
      "Ġabsolut": 5642,
      "åħ´å¥ĭ": 5643,
      "Ġdevelop": 5644,
      "individual": 5645,
      "ãĢĤâĢľčĊ": 5646,
      "è´§": 5647,
      "æ¼Ĥ": 5648,
      "Ġyears.čĊ": 5649,
      "responsi": 5650,
      "dest": 5651,
      "è¿Ļå°±æĺ¯": 5652,
      "edĠthem": 5653,
      "wordĠ": 5654,
      ",ĠbecauseĠth": 5655,
      "notic": 5656,
      "time.čĊ": 5657,
      "someoneĠ": 5658,
      "th.čĊ": 5659,
      "Ġsup": 5660,
      "ĠalreadyĠ": 5661,
      "ĠthereĠisĠ": 5662,
      "iliz": 5663,
      "Ġapproach": 5664,
      "tra": 5665,
      "åºĵ": 5666,
      "ourĠf": 5667,
      "éģŃ": 5668,
      "è°ĵ": 5669,
      "è¾ĳ": 5670,
      "ç«ŀ": 5671,
      "ĠthousandsĠofĠ": 5672,
      "bin": 5673,
      "dream": 5674,
      "ĠandĠs": 5675,
      "èĩªèº«": 5676,
      "è½½": 5677,
      "æģ°": 5678,
      "èĥľ": 5679,
      "åĽŀæĿ¥": 5680,
      "ĠæľīäºĽ": 5681,
      "åĲĦåľ°": 5682,
      "éĵģ": 5683,
      "åıĤåĬł": 5684,
      "given": 5685,
      "å®ĹæķĻ": 5686,
      ".ĠIt'sĠ": 5687,
      "Ġä¸įæĺ¯": 5688,
      "ĠAt": 5689,
      "æĢĸ": 5690,
      "cool": 5691,
      "ure,Ġ": 5692,
      "Ġplay": 5693,
      "ĠcalledĠ": 5694,
      "SA": 5695,
      "lu": 5696,
      "main": 5697,
      "oneĠs": 5698,
      "ansp": 5699,
      "ic.čĊ": 5700,
      "abl": 5701,
      "æĮ¥": 5702,
      "ment.čĊ": 5703,
      "åĲ§ï¼ŁčĊ": 5704,
      "havingĠ": 5705,
      "ĠtechnologyĠ": 5706,
      "ĠacrossĠtheĠ": 5707,
      "bestĠ": 5708,
      "ä¸Ģä»¶": 5709,
      "å°ģ": 5710,
      "æĿ¾": 5711,
      "ä¼ļè®®": 5712,
      "ĠAndĠwhen": 5713,
      "ç¬¦": 5714,
      "photograph": 5715,
      "aĠc": 5716,
      "elf": 5717,
      "Ġbi": 5718,
      "å¥ĩæĢª": 5719,
      "çĵ¦": 5720,
      "300": 5721,
      "nec": 5722,
      "Ġ19": 5723,
      ",ĠandĠyou": 5724,
      "æĹ¶ï¼ĮĠ": 5725,
      "çļĦæĺ¯ï¼Į": 5726,
      "ç»Ŀå¯¹": 5727,
      "çŁ³æ²¹": 5728,
      "sĠonĠtheĠ": 5729,
      "ĠåŃ": 5730,
      "uralĠ": 5731,
      "å½Ĵ": 5732,
      "eag": 5733,
      "near": 5734,
      "ram": 5735,
      "ilit": 5736,
      "rup": 5737,
      "ç¦ģ": 5738,
      "Ġhelp": 5739,
      "yearsĠago": 5740,
      "è®°å¿Ĩ": 5741,
      "letĠmeĠ": 5742,
      "thing.čĊ": 5743,
      "ç»į": 5744,
      "å¾ª": 5745,
      "ĠforĠtheĠ": 5746,
      "è§Ĩè§ī": 5747,
      "èĭ±å°º": 5748,
      "æ¶Īæģ¯": 5749,
      "experiment": 5750,
      ",Ġthey": 5751,
      "wind": 5752,
      "enef": 5753,
      "äºĨï¼ĮĠ": 5754,
      "Ġcour": 5755,
      "ĠmightĠ": 5756,
      "local": 5757,
      "ily": 5758,
      "è¡¨éĿ¢": 5759,
      "ï¼Įä½Ĩæĺ¯": 5760,
      "Internet": 5761,
      "Wor": 5762,
      "è¿Ļå¼ł": 5763,
      "rill": 5764,
      "consum": 5765,
      "éľĢæ±Ĥ": 5766,
      "notĠaĠ": 5767,
      "ç¨ĭåºı": 5768,
      "æĺŁæľŁ": 5769,
      "Ġä¹Łå°±æĺ¯": 5770,
      "ĠaĠlotĠof": 5771,
      "equal": 5772,
      "material": 5773,
      "o,Ġ": 5774,
      "s:": 5775,
      "wantĠ": 5776,
      "itĠis": 5777,
      "nothingĠ": 5778,
      "é¢ľ": 5779,
      "age,Ġ": 5780,
      "cip": 5781,
      "å®Įç¾İ": 5782,
      "é¾Ħ": 5783,
      "Ġright": 5784,
      "çļĦç»ĵæŀľ": 5785,
      "ä¸ĢåĲį": 5786,
      "edĠtoĠtheĠ": 5787,
      "go.čĊ": 5788,
      "è¯´ï¼ĮĠâĢľ": 5789,
      "outĠtheĠ": 5790,
      "æı¡": 5791,
      "Ġå½ĵæĹ¶": 5792,
      "æııè¿°": 5793,
      "believeĠ": 5794,
      "ï¼ĮĠå¤§": 5795,
      "ĠwantĠtoĠ": 5796,
      "ä¸įèµ·": 5797,
      "äººĠ": 5798,
      "å±ı": 5799,
      "Ġtru": 5800,
      "echan": 5801,
      "çļĦçĹħ": 5802,
      "hour": 5803,
      "singleĠ": 5804,
      "ä»¿": 5805,
      "ç»ª": 5806,
      "ĠintoĠtheĠ": 5807,
      "Ġarm": 5808,
      "éļĶ": 5809,
      "ureĠofĠ": 5810,
      "çļĦä¸ĢåĪĩ": 5811,
      "assion": 5812,
      "è¿ĩåİ»çļĦ": 5813,
      "Ġåº": 5814,
      "record": 5815,
      "åľ¨éĤ£": 5816,
      "çļĦæĽ": 5817,
      "itĠin": 5818,
      "éĵ¶è¡Į": 5819,
      "çļĦä¾ĭåŃĲ": 5820,
      "leaveĠ": 5821,
      "æ¯ģ": 5822,
      "è·¨": 5823,
      "Ġä½Ĩæĺ¯æĪĳ": 5824,
      "è¿Ĳä½ľ": 5825,
      "depend": 5826,
      ",Ġthey'reĠ": 5827,
      "sound": 5828,
      "ate.čĊ": 5829,
      "emerg": 5830,
      "abor": 5831,
      "âĢĿçļĦ": 5832,
      "ĠtimesĠ": 5833,
      "åĽ¾åĥı": 5834,
      "ĠaĠbig": 5835,
      "è´¨éĩı": 5836,
      "çľŁæŃ£çļĦ": 5837,
      "societ": 5838,
      "å¹¸ç¦ı": 5839,
      "cut": 5840,
      "dro": 5841,
      "Ġwell": 5842,
      "Ġcap": 5843,
      "ĠAndĠheĠ": 5844,
      "è´Ń": 5845,
      "å½ĵä½ł": 5846,
      "ĠasĠweĠ": 5847,
      "æĺ¾çĦ¶": 5848,
      "çļĦéĹ®é¢ĺãĢĤčĊ": 5849,
      "åı¥è¯Ŀ": 5850,
      "ä»ĭç»į": 5851,
      "sex": 5852,
      "Ġthing.čĊ": 5853,
      "innov": 5854,
      "edĠaboutĠ": 5855,
      "åı¯ä»¥åľ¨": 5856,
      "notĠonlyĠ": 5857,
      "meansĠ": 5858,
      "building": 5859,
      "ation,Ġ": 5860,
      "knowĠthatĠ": 5861,
      "ä¸¤ç§į": 5862,
      "pract": 5863,
      "åĢ¼å¾Ĺ": 5864,
      "invest": 5865,
      "ospital": 5866,
      "ģè®¸": 5867,
      "rew": 5868,
      "æĢ¥": 5869,
      "åıĳçĶŁåľ¨": 5870,
      "ĠâĻ«ĠâĻ«": 5871,
      "å¤±è´¥": 5872,
      "ç¢°": 5873,
      "Ġåĳ": 5874,
      "ä½łä¼ļ": 5875,
      "è¿ĩçļĦ": 5876,
      "evid": 5877,
      "è¡¨æĺİ": 5878,
      "æĺ¯å¾Ī": 5879,
      "itor": 5880,
      ",ĠIĠwasĠ": 5881,
      "edĠtoĠbeĠ": 5882,
      "æıĲåĩº": 5883,
      "ç½ĳç«Ļ": 5884,
      "ĠEvery": 5885,
      "åĤ¨": 5886,
      "journe": 5887,
      "ç³Łç³ķ": 5888,
      "ograph": 5889,
      "ous.čĊ": 5890,
      "ç»ĺ": 5891,
      "eĠthey": 5892,
      "lid": 5893,
      "liver": 5894,
      "æ³¡": 5895,
      "dollar": 5896,
      "quar": 5897,
      "effic": 5898,
      "ç¢į": 5899,
      "é¼ĵæİĮ": 5900,
      "IĠf": 5901,
      "cus": 5902,
      "may": 5903,
      "Ġwar": 5904,
      "ĠatĠall": 5905,
      "éĺħ": 5906,
      "æĺŁçĲĥ": 5907,
      "fail": 5908,
      "aleĠ": 5909,
      "ä¸ĢèĪ¬": 5910,
      "ĠinĠthisĠ": 5911,
      "process": 5912,
      "ĠOK": 5913,
      "longer": 5914,
      "fill": 5915,
      "win": 5916,
      "Ġ20": 5917,
      "ating": 5918,
      "quit": 5919,
      "æįŁ": 5920,
      "ç»ĵåĲĪ": 5921,
      "exampleĠ": 5922,
      "ption": 5923,
      "ä¸įå¤ļ": 5924,
      "Ġput": 5925,
      "ĠIĠwant": 5926,
      "è´£ä»»": 5927,
      "hold": 5928,
      "wall": 5929,
      "æĪĳä»¬èĥ½": 5930,
      "ĠWith": 5931,
      "éĩĮï¼Į": 5932,
      "moreĠthan": 5933,
      "ç¯ĩ": 5934,
      "Ar": 5935,
      "ein": 5936,
      "typ": 5937,
      "aterĠ": 5938,
      "ä¸įéĶĻ": 5939,
      "year.čĊ": 5940,
      "ocrac": 5941,
      "è¿ĲçĶ¨": 5942,
      "çļĦæĶ¹": 5943,
      "ĠToĠ": 5944,
      "tract": 5945,
      "æĤ²": 5946,
      "aughter": 5947,
      "Ġmodel": 5948,
      "very,ĠveryĠ": 5949,
      "dam": 5950,
      "o-": 5951,
      "æĺ¯è¿Ļæł·": 5952,
      "æ¶Īå¤±": 5953,
      "basicallyĠ": 5954,
      "kidsĠ": 5955,
      "åĲ¸å¼ķ": 5956,
      "Ġdon't": 5957,
      "ing,Ġ\"": 5958,
      "äºĨä¸ĢäºĽ": 5959,
      "Ġinv": 5960,
      "ä¸ŃéĹ´": 5961,
      "notĠjustĠ": 5962,
      "èĢħçļĦ": 5963,
      "åħ¨éĥ¨": 5964,
      "Ġè°¢è°¢ãĢĤčĊ": 5965,
      "åľŁåľ°": 5966,
      "Ġbuild": 5967,
      "Mar": 5968,
      "circ": 5969,
      "»º": 5970,
      "æī¹": 5971,
      "Ġcor": 5972,
      "entlyĠ": 5973,
      "åĽ½éĻħ": 5974,
      "cancer": 5975,
      "ownĠ": 5976,
      "ĠForĠ": 5977,
      "åĳĬè¯īæĪĳä»¬": 5978,
      "ĠIfĠyouĠ": 5979,
      "åį±æľº": 5980,
      "heĠsaid,Ġ\"": 5981,
      "iaĠ": 5982,
      "vac": 5983,
      "ely,Ġ": 5984,
      "esĠ--": 5985,
      "rab": 5986,
      "position": 5987,
      "æĻ®éĢļ": 5988,
      "inĠfact": 5989,
      "ert": 5990,
      "ĠandĠthen": 5991,
      "åİ»åģļ": 5992,
      "descri": 5993,
      "it?čĊ": 5994,
      "ä¹Į": 5995,
      "éĤ®": 5996,
      "peopleĠareĠ": 5997,
      "someĠofĠtheĠ": 5998,
      "çļĦæĦŁè§ī": 5999,
      "çļĦç¥ŀ": 6000,
      "necess": 6001,
      "oveĠ": 6002,
      "ĠI'dĠ": 6003,
      "eltĠ": 6004,
      "Ġbas": 6005,
      "worth": 6006,
      "ä¸ĭçļĦ": 6007,
      "ç»ĨèıĮ": 6008,
      "è·Ŀç¦»": 6009,
      "espec": 6010,
      "çļĦæģ": 6011,
      "å¾ĹåĪ°äºĨ": 6012,
      "up.čĊ": 6013,
      "ç®±": 6014,
      "è¿ĽæŃ¥": 6015,
      "æ¯ıå¹´": 6016,
      "deep": 6017,
      "population": 6018,
      "hundred": 6019,
      ",Ġwe'reĠ": 6020,
      "represent": 6021,
      "å°¾": 6022,
      "åĪ°è¾¾": 6023,
      "æŃ¦": 6024,
      "story.čĊ": 6025,
      "Ġpartic": 6026,
      "lookingĠatĠ": 6027,
      "ä¸Ńï¼ĮĠ": 6028,
      "é¢Ĺ": 6029,
      "likeĠthisĠ": 6030,
      "ç³ĸ": 6031,
      "ä¸įè¿ĩ": 6032,
      "older": 6033,
      "å½¼": 6034,
      "ĠisĠtheĠ": 6035,
      "startedĠtoĠ": 6036,
      "becameĠ": 6037,
      "çĶ·åŃ©": 6038,
      "çĪ¶äº²": 6039,
      "å¦ĩå¥³": 6040,
      "eightĠ": 6041,
      "pleas": 6042,
      "Ġover": 6043,
      "çļĦèĥ½åĬĽ": 6044,
      "an.čĊ": 6045,
      "è¿Ļé¡¹": 6046,
      "Ġby": 6047,
      "ä¸ŃčĊ": 6048,
      "e,ĠweĠ": 6049,
      "ç»Ļå¤§å®¶": 6050,
      "Ġagain.čĊ": 6051,
      "åĶ®": 6052,
      "I'mĠgoingĠtoĠ": 6053,
      "ä¸įçĶ¨": 6054,
      "ellow": 6055,
      "giveĠyou": 6056,
      "Ġtravel": 6057,
      "2000": 6058,
      "badĠ": 6059,
      ",ĠinĠ": 6060,
      "æł·çļĦ": 6061,
      "ä»Ģä¹ĪãĢĤčĊ": 6062,
      "getsĠ": 6063,
      "è£Ĥ": 6064,
      "ty": 6065,
      "è¿ĺè¦ģ": 6066,
      "uredĠ": 6067,
      "æ±ł": 6068,
      "é©¾": 6069,
      "èģĶåĲĪ": 6070,
      "æĿĥåĪ©": 6071,
      "buildĠ": 6072,
      "closeĠ": 6073,
      "ï¼ĮĠåħ¶": 6074,
      "ä»°": 6075,
      "ĠtodayĠ": 6076,
      "æŃ£æĺ¯": 6077,
      "æķ°éĩı": 6078,
      "tryingĠtoĠ": 6079,
      ",Ġyou'reĠ": 6080,
      "æģĲæĢĸ": 6081,
      "pattern": 6082,
      "ed,ĠandĠ": 6083,
      "Ġmov": 6084,
      "æ´Ĺ": 6085,
      "builtĠ": 6086,
      "æļ´åĬĽ": 6087,
      "æħ§": 6088,
      "ory.čĊ": 6089,
      "ĠtoĠs": 6090,
      "èĥ½çľĭåĪ°": 6091,
      "åŃĲčĊ": 6092,
      "Ġä½ĨæĪĳä»¬": 6093,
      "æ²¡æľīäºº": 6094,
      "ç¾İä¸½": 6095,
      "manag": 6096,
      "self-": 6097,
      "count": 6098,
      ",ĠinĠtheĠ": 6099,
      "æľīçļĦ": 6100,
      "lip": 6101,
      "çļĦçĸ": 6102,
      "shareĠ": 6103,
      "ĠtheĠsur": 6104,
      "é©¶": 6105,
      "åħ¶ä»ĸäºº": 6106,
      "inĠwhich": 6107,
      "es,ĠtheĠ": 6108,
      "åĲī": 6109,
      "Ġåģĩ": 6110,
      "effici": 6111,
      "Ġèĥ½å¤Ł": 6112,
      "Ġaway": 6113,
      "ä¹ĭä¸º": 6114,
      "const": 6115,
      "Ġåľ¨è¿Ļä¸ª": 6116,
      "åĮĸçļĦ": 6117,
      "youĠcanĠseeĠ": 6118,
      "å¹³çŃī": 6119,
      "æ®Ĭ": 6120,
      "ĠLetĠ": 6121,
      "ond": 6122,
      "Ġanal": 6123,
      "owerĠ": 6124,
      "ingĠisĠ": 6125,
      "ï¼ļæĪĳ": 6126,
      "ĠWeĠareĠ": 6127,
      "black": 6128,
      "example,Ġ": 6129,
      "ĠI'mĠgoingĠtoĠ": 6130,
      "èĴĻ": 6131,
      "ï¼Įä½łä»¬": 6132,
      "ĠandĠI": 6133,
      "è¿ĺåľ¨": 6134,
      "é©±": 6135,
      "ĠanythingĠ": 6136,
      "éĵ¾": 6137,
      "involv": 6138,
      "ĠThankĠyouĠveryĠmuch.čĊ": 6139,
      "OK": 6140,
      "ffer": 6141,
      "map": 6142,
      "oud": 6143,
      "Ġbusin": 6144,
      "ĠthatĠthisĠ": 6145,
      "ä¿ĥ": 6146,
      "è´´": 6147,
      "seeĠtheĠ": 6148,
      "æģĭ": 6149,
      "intell": 6150,
      "ĠåĲİ": 6151,
      "éħ·": 6152,
      "æĴŀ": 6153,
      "èīºæľ¯å®¶": 6154,
      "³å®ļ": 6155,
      "å¼ĢæĶ¾": 6156,
      "setĠ": 6157,
      "howĠ": 6158,
      "çľĭåĪ°äºĨ": 6159,
      "trans": 6160,
      "iesĠandĠ": 6161,
      "è§ĦåĪĻ": 6162,
      "ohn": 6163,
      ".\"": 6164,
      "Ph": 6165,
      "flo": 6166,
      "eĠof": 6167,
      "ï¼Įä»İ": 6168,
      "atesĠ": 6169,
      "ĠæĪĳçŁ¥éģĵ": 6170,
      "ĠæĪĳå¸ĮæľĽ": 6171,
      "æ³ķå¾ĭ": 6172,
      "ç¨į": 6173,
      "ĠæīĢ": 6174,
      "ities.čĊ": 6175,
      "recent": 6176,
      "å¼Ł": 6177,
      "ageĠofĠ": 6178,
      "æĬĬå®ĥä»¬": 6179,
      "æ»ĳ": 6180,
      "çļĦæµ·": 6181,
      "Ġtoward": 6182,
      "God": 6183,
      "eal": 6184,
      "æĪĳæīĢ": 6185,
      "you'veĠ": 6186,
      "ĠIs": 6187,
      "ä»ĸäºº": 6188,
      "ä¼ļåľ¨": 6189,
      "èµ¢": 6190,
      "åīĤ": 6191,
      "everĠ": 6192,
      "grand": 6193,
      "eĠthatĠweĠ": 6194,
      "ĠåĽłä¸ºæĪĳä»¬": 6195,
      "eĠisĠ": 6196,
      "ortĠ": 6197,
      "å®¡": 6198,
      "åħµ": 6199,
      "ä¼ĳ": 6200,
      "çļĦæ¦Ĥ": 6201,
      "çľģ": 6202,
      "æĬĵ": 6203,
      "Ġarchitect": 6204,
      "ç§°ä¹ĭä¸º": 6205,
      "æ¦Ĥå¿µ": 6206,
      "mess": 6207,
      "ĠAr": 6208,
      "verageĠ": 6209,
      "ĠtoĠthink": 6210,
      "outĠof": 6211,
      "åĢŁ": 6212,
      "åĬ¨ä½ľ": 6213,
      "éĩįè¦ģçļĦæĺ¯": 6214,
      "åħĪçĶŁ": 6215,
      "è¿Ļä¸ĢåĪĩ": 6216,
      "Ġgroup": 6217,
      "went": 6218,
      "y,ĠandĠ": 6219,
      "æĺ¯éĿŀå¸¸": 6220,
      "Ġpower": 6221,
      "Ġbre": 6222,
      "ĠIĠhaveĠ": 6223,
      "è½¬åıĺ": 6224,
      "Ġdecid": 6225,
      "physic": 6226,
      "éŃĶ": 6227,
      ",Ġthere'sĠ": 6228,
      "pect": 6229,
      "ĠAĠ": 6230,
      "edĠfrom": 6231,
      "Ġpre": 6232,
      "ection": 6233,
      "ance,Ġ": 6234,
      "Ġå¥³": 6235,
      "çļĦæł·": 6236,
      "çĪ¶æ¯į": 6237,
      "rateĠ": 6238,
      "´åĦ¿": 6239,
      "enn": 6240,
      "leav": 6241,
      "ä¾µ": 6242,
      "spaceĠ": 6243,
      "èĤ¥": 6244,
      "green": 6245,
      "ĠDoĠ": 6246,
      "ĠthanĠtheĠ": 6247,
      "Ġtoday.čĊ": 6248,
      "çĽĳçĭ±": 6249,
      "non-": 6250,
      ",ĠareĠ": 6251,
      "Oh": 6252,
      "ä¿Ħ": 6253,
      "æĸ¹åĲĳ": 6254,
      "ç¤¼": 6255,
      "makeĠs": 6256,
      "åĲ§ãĢĤčĊ": 6257,
      "æĳĨ": 6258,
      "ä¸ĢçĽ´åľ¨": 6259,
      "»åŃĲ": 6260,
      "Ġä¸ĢäºĽ": 6261,
      "realĠ": 6262,
      "elt": 6263,
      "imension": 6264,
      "çĶ¨çļĦ": 6265,
      "éĥ½ä¸į": 6266,
      "ç§įæĹı": 6267,
      "æĽ¿": 6268,
      "è¿ĺæ²¡æľī": 6269,
      "æİ¥è§¦": 6270,
      "ĠseeĠtheĠ": 6271,
      "ĠåĽłä¸ºæĪĳ": 6272,
      "decision": 6273,
      "Ġpeople.čĊ": 6274,
      "ï¼ĮåĴĮ": 6275,
      "Ġmark": 6276,
      "å¹³åĿĩ": 6277,
      "moneyĠ": 6278,
      "èĬ±è´¹": 6279,
      "Ġspac": 6280,
      "numberĠ": 6281,
      "interesting": 6282,
      "civ": 6283,
      "Ġç»Ļ": 6284,
      "ĠtoĠyou": 6285,
      "æľĢå¤§çļĦ": 6286,
      "å¥½ãĢĤčĊ": 6287,
      "ept": 6288,
      "è¥¿æĸ¹": 6289,
      "crim": 6290,
      "çļĦåľ°æĸ¹ãĢĤčĊ": 6291,
      "çļĦæ¼Ķè®²": 6292,
      "Fr": 6293,
      "M:": 6294,
      "i-": 6295,
      "ï¼Įå®ĥä»¬": 6296,
      "åĩºçĶŁ": 6297,
      "èį£": 6298,
      "æ£®æŀĹ": 6299,
      "olar": 6300,
      "ä½ĵç³»": 6301,
      "Ġå®ĥæĺ¯": 6302,
      "èĥģ": 6303,
      "centur": 6304,
      "ï¼ĮĠå°±æĺ¯": 6305,
      "universeĠ": 6306,
      "whereĠtheĠ": 6307,
      "è¸ª": 6308,
      "G:": 6309,
      "billion": 6310,
      "å®Ī": 6311,
      "loodĠ": 6312,
      "ĠæĪĳä¼ļ": 6313,
      "predict": 6314,
      "ç«Ļåľ¨": 6315,
      "edĠbyĠtheĠ": 6316,
      "pull": 6317,
      "çļĦâĢľ": 6318,
      "oftw": 6319,
      "éĻ·": 6320,
      "åĪĨä¹ĭä¸Ģ": 6321,
      "åħ³å¿ĥ": 6322,
      "æı´": 6323,
      "minut": 6324,
      "Ġåı¦å¤ĸ": 6325,
      "-year-": 6326,
      "çļĦå£°éŁ³": 6327,
      "ĠtoĠgetĠ": 6328,
      "âĢ¢": 6329,
      "æĹ¢": 6330,
      "ifi": 6331,
      "ĠanotherĠ": 6332,
      "U.S.": 6333,
      "today": 6334,
      "éŀ": 6335,
      "ĠaĠwholeĠ": 6336,
      "sĠ--Ġ": 6337,
      "ice,Ġ": 6338,
      "isn'tĠ": 6339,
      "Ġcould": 6340,
      "ountĠofĠ": 6341,
      "consci": 6342,
      "çĽ¸åıį": 6343,
      "ĠthingsĠthatĠ": 6344,
      "åĮ»åŃ¦": 6345,
      "æĿ¡ä»¶": 6346,
      "ivers": 6347,
      "Ġè¯·": 6348,
      "ä»Ķ": 6349,
      ",Ġwell": 6350,
      "ä¸ĸçķĮçļĦ": 6351,
      "è£ħç½®": 6352,
      "èī¾æ»ĭ": 6353,
      "ä¸ģ": 6354,
      "inĠs": 6355,
      "hasĠtoĠ": 6356,
      "éĤ£ç§į": 6357,
      "condition": 6358,
      "çłĶ": 6359,
      "Ġå¤ļ": 6360,
      "è§Ĵèī²": 6361,
      "surpris": 6362,
      "IĠam": 6363,
      "ï¼İčĊ": 6364,
      "ï¼Įå°±æĺ¯": 6365,
      "ref": 6366,
      "edĠitĠ": 6367,
      "è§Ī": 6368,
      "çļĦçĬ": 6369,
      "Ġä½łçŁ¥éģĵ": 6370,
      "çĤ¹ãĢĤčĊ": 6371,
      "çī¹æ®Ĭ": 6372,
      "ĠaĠsmall": 6373,
      "å¸¦çĿĢ": 6374,
      "world'sĠ": 6375,
      "æĶ¶åħ¥": 6376,
      "åĬŀåħ¬": 6377,
      "sycho": 6378,
      "ç»¿èī²": 6379,
      "æĪĳä»¬è¦ģ": 6380,
      "æľīä¸ĢäºĽ": 6381,
      "ĠOf": 6382,
      "ublish": 6383,
      "gain": 6384,
      "ĠèĻ½çĦ¶": 6385,
      "onĠthisĠ": 6386,
      "è¯¸": 6387,
      "çİĽ": 6388,
      "urther": 6389,
      "æľĢå¥½": 6390,
      "Ġåħĭ": 6391,
      "hadĠbeen": 6392,
      "Ġè¯´": 6393,
      "æĺ¯ä¸į": 6394,
      "whileĠ": 6395,
      "ĠtoĠtakeĠ": 6396,
      "å¤ļä¹Ī": 6397,
      "æĮº": 6398,
      "å½ĵæĪĳ": 6399,
      "life,Ġ": 6400,
      "å¾Īå¤ļäºº": 6401,
      "muchĠmoreĠ": 6402,
      "visual": 6403,
      "leader": 6404,
      "ĠTheseĠareĠ": 6405,
      "Ġå¹´": 6406,
      "sometimesĠ": 6407,
      "believ": 6408,
      "Ġç¾İåĽ½": 6409,
      "started": 6410,
      "åĪĽä½ľ": 6411,
      "ĠbeingĠ": 6412,
      "ç¥ŀå¥ĩ": 6413,
      "extraordin": 6414,
      "keyĠ": 6415,
      "og": 6416,
      "set": 6417,
      "animal": 6418,
      "itch": 6419,
      "omb": 6420,
      ",ĠandĠheĠ": 6421,
      "çļĦç®": 6422,
      "consider": 6423,
      "howĠweĠ": 6424,
      "Ġå°½ç®¡": 6425,
      "æ¡Į": 6426,
      "engag": 6427,
      "èĭ±éĩĮ": 6428,
      "ired": 6429,
      "ç®ĢåįķçļĦ": 6430,
      "Ġtouch": 6431,
      "ĠwayĠ": 6432,
      "ĠaĠnew": 6433,
      "childĠ": 6434,
      "ourĠc": 6435,
      "behavior": 6436,
      "beĠableĠtoĠ": 6437,
      "çŃ¾": 6438,
      "éĹ®é¢ĺæĺ¯": 6439,
      "å¿ĥèĦı": 6440,
      "clos": 6441,
      "ĠusĠ": 6442,
      "å°Ĭ": 6443,
      "æī«": 6444,
      "ford": 6445,
      "æĥ¯": 6446,
      "knowĠhow": 6447,
      "ä½ĵçļĦ": 6448,
      "æĦŁæŁĵ": 6449,
      "strang": 6450,
      "'r": 6451,
      "film": 6452,
      "forest": 6453,
      "æķħ": 6454,
      "æĸ°éĹ»": 6455,
      "æ±¡": 6456,
      "åıĳçİ°äºĨ": 6457,
      "Ġanything": 6458,
      "buildingĠ": 6459,
      "ï¼ĮæīĢä»¥": 6460,
      ",ĠlikeĠ": 6461,
      "ĠåŃ¦": 6462,
      "es?čĊ": 6463,
      "ï¼ĮĠå¾": 6464,
      "æīĢåľ¨": 6465,
      "Ġfind": 6466,
      "common": 6467,
      "è¡¨ç¤º": 6468,
      "æ°´å¹³": 6469,
      "ĠtheĠbestĠ": 6470,
      "çĶ·æĢ§": 6471,
      "éĻįä½İ": 6472,
      "street": 6473,
      "IV": 6474,
      "Ġtre": 6475,
      "çļĦçİ¯å¢ĥ": 6476,
      "ingĠtheseĠ": 6477,
      "æľīåı¯èĥ½": 6478,
      "åľ¨æĪĳä»¬": 6479,
      "ĠI'll": 6480,
      "esĠofĠtheĠ": 6481,
      "éĢĥ": 6482,
      "ĠandĠtheyĠ": 6483,
      "çļĦç³": 6484,
      "credi": 6485,
      "ĠIĠwantĠtoĠ": 6486,
      "eĠsometh": 6487,
      "bad": 6488,
      "lad": 6489,
      "inĠthatĠ": 6490,
      "å¥¶": 6491,
      "åĲĮäºĭ": 6492,
      "youĠhaveĠtoĠ": 6493,
      "èĤ¢": 6494,
      "å»ºè®®": 6495,
      "partĠofĠ": 6496,
      "ceiv": 6497,
      "direct": 6498,
      "ĠAfter": 6499,
      "cod": 6500,
      "scal": 6501,
      "saw": 6502,
      "compet": 6503,
      "å·¥ä½ľãĢĤčĊ": 6504,
      "Ġhere.čĊ": 6505,
      "é¢ľèī²": 6506,
      ",čĊ": 6507,
      "becaus": 6508,
      "nuc": 6509,
      "weĠthink": 6510,
      "youĠareĠ": 6511,
      "è¯ĳ": 6512,
      "éĤĢ": 6513,
      "Ġbig": 6514,
      "éĥ½çŁ¥éģĵ": 6515,
      "åĩºåİ»": 6516,
      "ï¼ĮĠå°±åĥı": 6517,
      "ofĠcourse": 6518,
      "400": 6519,
      "oth": 6520,
      "ertain": 6521,
      "è¿İ": 6522,
      "ï¼ĮĠéĤ£ä¹Ī": 6523,
      "ä¸ĬäºĨ": 6524,
      "weĠwereĠ": 6525,
      "åĨĴ": 6526,
      "door": 6527,
      "perat": 6528,
      "çľŁæĺ¯": 6529,
      "Ġ200": 6530,
      "çļĦåľ°": 6531,
      "ä½Ļ": 6532,
      "ĠthatĠIĠ": 6533,
      "Ġè¿Ļæĺ¯æĪĳ": 6534,
      "çī¹å®ļ": 6535,
      "å²¸": 6536,
      "ç²Ĵ": 6537,
      "ä¸ĵä¸ļ": 6538,
      "scienceĠ": 6539,
      "continu": 6540,
      "Ġåį³ä½¿": 6541,
      "ball": 6542,
      "fear": 6543,
      "åºŁ": 6544,
      "upĠtoĠ": 6545,
      "oteĠ": 6546,
      "éĹ®é¢ĺčĊ": 6547,
      "å½¢çĬ¶": 6548,
      "ĠçĦ¶åĲİæĪĳ": 6549,
      "dust": 6550,
      "Ġaw": 6551,
      "ĠIĠm": 6552,
      "Ġhere": 6553,
      "æ¯ıä¸Ģä¸ª": 6554,
      "relat": 6555,
      "dy": 6556,
      "machin": 6557,
      "sil": 6558,
      "åħģè®¸": 6559,
      "ingĠyou": 6560,
      "åİħ": 6561,
      "å¹´åĲİ": 6562,
      "doctor": 6563,
      "essenti": 6564,
      "æī¾åĪ°äºĨ": 6565,
      "äº¤éĢļ": 6566,
      "ĠaĠhalf": 6567,
      "å¨ģèĥģ": 6568,
      "éĥ½èĥ½": 6569,
      "ĠTheĠfirstĠ": 6570,
      "äººç±»çļĦ": 6571,
      "fly": 6572,
      "zz": 6573,
      "Ġç»ĵæŀľ": 6574,
      "onesĠ": 6575,
      "çļĦæŁ": 6576,
      "å¼Ĺ": 6577,
      "åįĪ": 6578,
      "åŃĲçļĦ": 6579,
      "éĽħ": 6580,
      "é«ĺåħ´": 6581,
      "åĳĬè¯īä½łä»¬": 6582,
      "structureĠ": 6583,
      "don't": 6584,
      "biolog": 6585,
      "famili": 6586,
      "uggest": 6587,
      "lay": 6588,
      "ä»İæľª": 6589,
      "èĤ¡": 6590,
      "çģ¾": 6591,
      "hood": 6592,
      "path": 6593,
      "sĠatĠ": 6594,
      "areĠs": 6595,
      "ä¸įåľ¨": 6596,
      "etter": 6597,
      "æĹ¶æľŁ": 6598,
      "web": 6599,
      "æ±ĩ": 6600,
      "ï¼ĮĠåĲĮ": 6601,
      "eĠthoseĠ": 6602,
      "å¿½": 6603,
      "èĤ¤": 6604,
      "ĠofĠaĠ": 6605,
      "æ®ĸ": 6606,
      "versation": 6607,
      "vail": 6608,
      "çļĦä¸»": 6609,
      "Ġhom": 6610,
      "s,Ġbut": 6611,
      "å·¥ä¸ļ": 6612,
      "çĽ¸ä¼¼": 6613,
      "prim": 6614,
      "é¦Ļ": 6615,
      "äºĴåĬ¨": 6616,
      "somebodyĠ": 6617,
      "orderĠtoĠ": 6618,
      "éģ¿åħį": 6619,
      "English": 6620,
      "45": 6621,
      "eedĠ": 6622,
      "Ġachi": 6623,
      "ï¼Įå¹¶": 6624,
      "Ġamong": 6625,
      "ĠåĪĽ": 6626,
      "audi": 6627,
      "shap": 6628,
      "Ġtech": 6629,
      "ions.čĊ": 6630,
      "ĠthatĠitĠ": 6631,
      "ĠtoĠthisĠ": 6632,
      "neur": 6633,
      "åī¯": 6634,
      "Ġtry": 6635,
      "virt": 6636,
      "ï¼Įè¿ĺæľī": 6637,
      "å®ľ": 6638,
      "æĪĳä»¬æľī": 6639,
      "ä¸ĭéĻį": 6640,
      "åĵ¦": 6641,
      "ĠNoĠ": 6642,
      "Ġtransp": 6643,
      "aughtĠ": 6644,
      "Ġcountr": 6645,
      "knowledg": 6646,
      "bel": 6647,
      "çļĦè®¾è®¡": 6648,
      "Ġå¯": 6649,
      "Ġco": 6650,
      "çĶŁéķ¿": 6651,
      "æ±Ĺ": 6652,
      "ĠisĠaĠ": 6653,
      ",ĠweĠcan": 6654,
      "whatĠtheĠ": 6655,
      "interestingĠ": 6656,
      "çļĦç²¾": 6657,
      "turn": 6658,
      "åľĨ": 6659,
      "ĠmostĠ": 6660,
      "å®ĥæĺ¯": 6661,
      "andĠtheĠ": 6662,
      "æĬĬè¿ĻäºĽ": 6663,
      "Ġaccess": 6664,
      "ĠpercentĠofĠ": 6665,
      "Ġattention": 6666,
      "èĽĭçĻ½": 6667,
      "ħæĭ¬": 6668,
      "ĠfindĠ": 6669,
      "ĠwhyĠ": 6670,
      "fromĠaĠ": 6671,
      "ĠéĤ£æĺ¯": 6672,
      "poll": 6673,
      "ideaĠofĠ": 6674,
      "é²ľ": 6675,
      "respond": 6676,
      "foodĠ": 6677,
      "yn": 6678,
      "Ġéĥ½æĺ¯": 6679,
      "Ġæİ¥çĿĢ": 6680,
      ",Ġit's": 6681,
      "Ġå»º": 6682,
      "Ġwher": 6683,
      "doĠyou": 6684,
      "è®²è¿°": 6685,
      "ĠTheyĠwereĠ": 6686,
      "hasĠaĠ": 6687,
      "æĥ³è±¡ä¸Ģä¸ĭ": 6688,
      "Ġåıªæľī": 6689,
      "wonderful": 6690,
      "fast": 6691,
      "fair": 6692,
      "Ġnow": 6693,
      "ï¼ĮĠæ¯Ķå¦Ĥ": 6694,
      "éĤ¦": 6695,
      "ĠallĠtheseĠ": 6696,
      "we'll": 6697,
      "whatĠhappen": 6698,
      "Ġå¦ĤæŀľæĪĳ": 6699,
      "æ®ĭ": 6700,
      "everyĠsingleĠ": 6701,
      "crit": 6702,
      "haven'tĠ": 6703,
      "æ¤ħ": 6704,
      "bal": 6705,
      "mot": 6706,
      "ing,ĠandĠ": 6707,
      "éĤ£æĹ¶": 6708,
      "èµŀ": 6709,
      "Ġå¦Ĥä½ķ": 6710,
      "åŀĭçļĦ": 6711,
      "whatĠtheyĠ": 6712,
      "åıĸå¾Ĺ": 6713,
      "Ġäºİæĺ¯æĪĳ": 6714,
      "ç§¯æŀģ": 6715,
      "character": 6716,
      "link": 6717,
      "y,": 6718,
      "ç§Ģ": 6719,
      "å¯¹è¯Ŀ": 6720,
      "ĠtheirĠf": 6721,
      "Ġè¿Ļæĺ¯ä¸ª": 6722,
      "çļĦäºĭãĢĤčĊ": 6723,
      "å®ĥä»¬çļĦ": 6724,
      "å¤Ħäºİ": 6725,
      "èµĦéĩĳ": 6726,
      "invent": 6727,
      "æĬķåħ¥": 6728,
      "Ġtransform": 6729,
      "fortunat": 6730,
      "ï¼Įä¸Ģ": 6731,
      "ãĢĤâĢĿ": 6732,
      "edĠmyĠ": 6733,
      "æĽ´å¥½çļĦ": 6734,
      "äºĮåįģ": 6735,
      "æĶ¿çŃĸ": 6736,
      "meet": 6737,
      "goneĠ": 6738,
      "Ġå½": 6739,
      "ingĠinĠ": 6740,
      "edom": 6741,
      "ä¸ĭä¸Ģä¸ª": 6742,
      "åıªè¦ģ": 6743,
      "Ġattack": 6744,
      "ieldĠ": 6745,
      "like,Ġ\"": 6746,
      "figureĠoutĠ": 6747,
      "nightĠ": 6748,
      "stick": 6749,
      "æĹĭ": 6750,
      "together": 6751,
      "ç»Ļä»ĸä»¬": 6752,
      "åĽłæŃ¤": 6753,
      "Ġdoes": 6754,
      "Ġbeing": 6755,
      "endĠofĠtheĠ": 6756,
      "èıľ": 6757,
      "gaveĠ": 6758,
      "ä¸¹": 6759,
      "ine.čĊ": 6760,
      "Ġå®Į": 6761,
      "efull": 6762,
      "ä¿Ŀè¯ģ": 6763,
      "å®³æĢķ": 6764,
      "revolution": 6765,
      "favor": 6766,
      "uff": 6767,
      "æľĿ": 6768,
      "åľ¨éĤ£éĩĮ": 6769,
      "ä¼¸": 6770,
      "Ġdr": 6771,
      "sever": 6772,
      "Ġgener": 6773,
      "åĨħéĥ¨": 6774,
      "calledĠtheĠ": 6775,
      "ross": 6776,
      "past": 6777,
      "push": 6778,
      "sitt": 6779,
      "sĠweĠ": 6780,
      ",ĠifĠyou": 6781,
      "ãĢĤĠè¿Ļ": 6782,
      "æĪĲéķ¿": 6783,
      "çĥ¦": 6784,
      "ï¼ĮĠèĢĮæĺ¯": 6785,
      "æĳ©": 6786,
      "ĠTheyĠareĠ": 6787,
      "special": 6788,
      "Ġbook": 6789,
      "portĠ": 6790,
      "sycholog": 6791,
      "IĠdon'tĠ": 6792,
      "ï¼ĮĠä»¥": 6793,
      "çļĦæŀ": 6794,
      "immed": 6795,
      "çī©é¦Ĩ": 6796,
      "éĺ´": 6797,
      "pher": 6798,
      "æłĩåĩĨ": 6799,
      "natureĠ": 6800,
      "çļĦæłĩ": 6801,
      "éģĩåĪ°": 6802,
      ".ĠWeĠ": 6803,
      "rand": 6804,
      "ofĠwhatĠ": 6805,
      "ä¹Ķ": 6806,
      "oment": 6807,
      "again": 6808,
      "ĠOh": 6809,
      "äºĴçĽ¸": 6810,
      "èľľ": 6811,
      "å©´åĦ¿": 6812,
      "éĺħè¯»": 6813,
      ",ĠnotĠ": 6814,
      "es,Ġand": 6815,
      "essĠofĠ": 6816,
      "reduc": 6817,
      "ä¹¡": 6818,
      "çļĦæ¶": 6819,
      "rob": 6820,
      "åĴĮå¹³": 6821,
      "ountain": 6822,
      "æīĢæľīäºº": 6823,
      "åĸĿ": 6824,
      "ĠtheĠfact": 6825,
      "ç¥ĸ": 6826,
      "letter": 6827,
      "ä»·æł¼": 6828,
      "çĬ¶æĢģ": 6829,
      "ĠThere'sĠaĠ": 6830,
      "pictureĠ": 6831,
      "normal": 6832,
      "1.": 6833,
      "exam": 6834,
      "spend": 6835,
      "ĠèĢĮä¸įæĺ¯": 6836,
      "ĠIfĠweĠ": 6837,
      "éĢĤåºĶ": 6838,
      "fra": 6839,
      "yetĠ": 6840,
      "è¦": 6841,
      "sĠyou": 6842,
      "è¿Ļä»¶äºĭ": 6843,
      "æĪĳä»¬éľĢè¦ģ": 6844,
      "ä½łèĥ½": 6845,
      "usion": 6846,
      "Ġsens": 6847,
      "åı¯æĢķ": 6848,
      "took": 6849,
      "knowĠwhatĠ": 6850,
      "åħ¬æ°ĳ": 6851,
      "è¿Ĳè¡Į": 6852,
      "æµĭéĩı": 6853,
      "round": 6854,
      "é½": 6855,
      "Ġit's": 6856,
      "çļĦä¸ĢäºĽ": 6857,
      "entific": 6858,
      "riendĠ": 6859,
      "è¡¥": 6860,
      "å¯¹æŃ¤": 6861,
      "è¾©": 6862,
      "ä¸ĸçķĮåĲĦåľ°": 6863,
      "ĠaboutĠthisĠ": 6864,
      "money": 6865,
      "expens": 6866,
      "ï¼ĮèĢĮä¸Ķ": 6867,
      "èģĮä¸ļ": 6868,
      "Ġcentur": 6869,
      "å½¼æŃ¤": 6870,
      "eanĠ": 6871,
      "»ç»Ł": 6872,
      "ï¼ĮĠæĿ¥": 6873,
      "æĬ½": 6874,
      "æĬĳ": 6875,
      "ĠæĪĳä»¬è¦ģ": 6876,
      "å®¶ä¼Ļ": 6877,
      "ĠdoĠweĠ": 6878,
      "ĠwillĠ": 6879,
      "éĻĲåĪ¶": 6880,
      "3D": 6881,
      "pan": 6882,
      "hair": 6883,
      "éĢĴ": 6884,
      "ribut": 6885,
      "dog": 6886,
      "æ¶ī": 6887,
      "Ġprobab": 6888,
      "âĢ¦âĢ¦": 6889,
      "y?čĊ": 6890,
      "æĪĳä¼ļ": 6891,
      "itud": 6892,
      "Ġwant": 6893,
      "äººæ°ĳ": 6894,
      "ä½łçŁ¥éģĵ": 6895,
      "æīĢè°ĵ": 6896,
      "express": 6897,
      "ĠæĪĳä»¬çİ°åľ¨": 6898,
      "ĠNew": 6899,
      "lookingĠ": 6900,
      "lookingĠfor": 6901,
      "æģĴ": 6902,
      "wayĠtoĠ": 6903,
      "èĭĹ": 6904,
      "post": 6905,
      "æĤī": 6906,
      "ĠéĿŀå¸¸æĦŁè°¢": 6907,
      "rupt": 6908,
      "bur": 6909,
      "nar": 6910,
      "uit": 6911,
      "ĠallĠofĠtheĠ": 6912,
      "ä¹ĭå¤ĸ": 6913,
      "peri": 6914,
      "percentĠ": 6915,
      "ĠSoĠIĠ": 6916,
      "ĠofĠtheseĠ": 6917,
      "åŁºéĩĳ": 6918,
      "èŃ¦å¯Ł": 6919,
      "æ¯«æĹł": 6920,
      "è¦Ĩ": 6921,
      "sĠandĠtheĠ": 6922,
      "è¹": 6923,
      "inyĠ": 6924,
      "åŃ¦ä¼ļ": 6925,
      "projectĠ": 6926,
      "åĬ¨åĬĽ": 6927,
      "istsĠ": 6928,
      "ĠthemĠ": 6929,
      "more.čĊ": 6930,
      "åı¯èĥ½æĺ¯": 6931,
      "Ġå¥½åĲ§": 6932,
      "åİĭåĬĽ": 6933,
      "åĨ²çªģ": 6934,
      "cen": 6935,
      "eatĠ": 6936,
      "ä¸°": 6937,
      "ateĠtheĠ": 6938,
      "ifĠtheyĠ": 6939,
      "è¯´ï¼ļ": 6940,
      "encyĠ": 6941,
      "strateg": 6942,
      "æĿĤå¿Ĺ": 6943,
      "éĺ¿æĭī": 6944,
      "å¡ĳæĸĻ": 6945,
      "ï¼ĮĠåį³": 6946,
      "bed": 6947,
      "s'": 6948,
      "Ġä½¿": 6949,
      "ĠweĠs": 6950,
      "ä½łæīĢ": 6951,
      "began": 6952,
      "Ġtrack": 6953,
      "è®¾æĸ½": 6954,
      "happin": 6955,
      "åĽŀå®¶": 6956,
      "ĠagoĠ": 6957,
      "right.čĊ": 6958,
      "ĠagainstĠ": 6959,
      "Ġåį´": 6960,
      "è¯ģæį®": 6961,
      "æ³¨æĦıåĪ°": 6962,
      "äººçĶŁ": 6963,
      "loseĠ": 6964,
      "çĽĽ": 6965,
      "ĠatĠthisĠ": 6966,
      "å°ıåŃ©": 6967,
      "whatĠI": 6968,
      "ä¿¡ä»°": 6969,
      "è¿Ļæĺ¯ä¸Ģä¸ª": 6970,
      "Ġyears,Ġ": 6971,
      "we'reĠgoingĠtoĠ": 6972,
      "ç¢İ": 6973,
      "personal": 6974,
      "employ": 6975,
      "market": 6976,
      "climateĠ": 6977,
      ".ĠItĠ": 6978,
      "hugeĠ": 6979,
      "ious": 6980,
      "Ġ-": 6981,
      "sĠitĠ": 6982,
      "è¯ŀ": 6983,
      "irth": 6984,
      "çľĭæĿ¥": 6985,
      "ĠæĪĳä»¬æľī": 6986,
      "Ġwhat'sĠ": 6987,
      "evolv": 6988,
      "æİ¥è¿ĳ": 6989,
      "ideasĠ": 6990,
      "æ¾": 6991,
      "Ġæİ¥ä¸ĭæĿ¥": 6992,
      "ä¸Ģåľº": 6993,
      "ä¹ĺ": 6994,
      "us,Ġ": 6995,
      "eĠthrough": 6996,
      "Ġbut": 6997,
      "è½¨": 6998,
      "Ġthey'veĠ": 6999,
      "ength": 7000,
      "ĠIĠwouldĠ": 7001,
      "åįļçī©é¦Ĩ": 7002,
      "ĠNotĠ": 7003,
      "éĢĲæ¸Ĳ": 7004,
      "mult": 7005,
      "sell": 7006,
      "Ġä¾ĭå¦Ĥ": 7007,
      "çļĦåĬĽéĩı": 7008,
      "oreĠ": 7009,
      "inglyĠ": 7010,
      "stra": 7011,
      "ĠIĠam": 7012,
      "æīİ": 7013,
      "æľĢå¤§": 7014,
      "ä»Ģä¹Īæĺ¯": 7015,
      "youĠcan'tĠ": 7016,
      "çĥ§": 7017,
      "answer": 7018,
      "èĬ±äºĨ": 7019,
      "æŁĲä¸ª": 7020,
      "ĠåĽłæŃ¤ï¼Į": 7021,
      "Ġhead": 7022,
      "countryĠ": 7023,
      "è´Łè´£": 7024,
      "ĠatĠleastĠ": 7025,
      "fut": 7026,
      "Ġdem": 7027,
      "æĪĲæľ¬": 7028,
      "æµ®": 7029,
      "phoneĠ": 7030,
      "çļĦæĹ¶åĢĻï¼Į": 7031,
      "æ¶Īè´¹": 7032,
      "studyĠ": 7033,
      "æģĲæĥ§": 7034,
      "å±ŀäºİ": 7035,
      "éĺ»æŃ¢": 7036,
      "éĤĢè¯·": 7037,
      "Ĭçĳ": 7038,
      "edĠthat": 7039,
      "éĤ»": 7040,
      "æĹ¶åĪ»": 7041,
      "bey": 7042,
      "æĭľ": 7043,
      "Ġalway": 7044,
      "ĠåıĪ": 7045,
      "ĠèĢĮæĪĳ": 7046,
      "achineĠ": 7047,
      "ourĠown": 7048,
      "å¤ªå¤ļ": 7049,
      "è§ģè¿ĩ": 7050,
      "ĠanyoneĠ": 7051,
      "ceptĠ": 7052,
      "Ġtradition": 7053,
      "å³°": 7054,
      "acebook": 7055,
      "Ĭçĳļ": 7056,
      "aff": 7057,
      "äºĳ": 7058,
      "on,Ġ": 7059,
      "ations.čĊ": 7060,
      "å¿Ļ": 7061,
      "æ²¡äºº": 7062,
      "enceĠofĠ": 7063,
      "ĠaĠsingleĠ": 7064,
      "Ġprogram": 7065,
      "heard": 7066,
      "moment": 7067,
      "æĺ¯ä»İ": 7068,
      "edĠout": 7069,
      "åĳĨ": 7070,
      "ount": 7071,
      "ĠatĠaĠ": 7072,
      "æľ¬è´¨": 7073,
      "ç©ºæ°Ķ": 7074,
      ",ĠthereĠareĠ": 7075,
      "WhatĠ": 7076,
      "eĠofĠtheĠ": 7077,
      "ãĢĤæĪĳä»¬": 7078,
      "åı¶": 7079,
      "è¯´è¯Ŀ": 7080,
      "earli": 7081,
      "æĶ»": 7082,
      "Ġä½Ĩè¿Ļ": 7083,
      "è¡Įä¸ļ": 7084,
      "years.čĊ": 7085,
      "éĽª": 7086,
      "çĪ¬": 7087,
      "çĥŁ": 7088,
      "Ġtogether.čĊ": 7089,
      "function": 7090,
      "èĥĮæĻ¯": 7091,
      "ĠThat's": 7092,
      "mission": 7093,
      "çļĦæ¦Ĥå¿µ": 7094,
      "gor": 7095,
      "Ġagre": 7096,
      "åħļ": 7097,
      "å¾Īæ£Ĵ": 7098,
      "eĠsystem": 7099,
      "inĠtheĠm": 7100,
      "uresĠ": 7101,
      "å¤ªç©º": 7102,
      "çĭ¬ç«ĭ": 7103,
      "é¼ĵæİĮï¼ī": 7104,
      "neuron": 7105,
      "35": 7106,
      "ez": 7107,
      "eum": 7108,
      "æľ«": 7109,
      "ingĠs": 7110,
      "Ġthat'sĠtheĠ": 7111,
      "Ġfour": 7112,
      "åŁºäºİ": 7113,
      "Ġå¥¹ä»¬": 7114,
      "Ġappear": 7115,
      "extremelyĠ": 7116,
      "75": 7117,
      "hardĠ": 7118,
      "includ": 7119,
      "æ²¡æľīä»»ä½ķ": 7120,
      "éĽĨä¸Ń": 7121,
      "ĠThere's": 7122,
      "æĥħåĨµä¸ĭ": 7123,
      "è¯¾ç¨ĭ": 7124,
      "either": 7125,
      "ĠåĲİæĿ¥": 7126,
      "æĪ´": 7127,
      "Ġwr": 7128,
      "Ġpres": 7129,
      "ĠæĪĳä¹Ł": 7130,
      "raf": 7131,
      "çļĦçĥ": 7132,
      "çī©ä½ĵ": 7133,
      "å§Ĳ": 7134,
      "moreĠthanĠ": 7135,
      "likeĠa": 7136,
      "impossi": 7137,
      "åĩłå¹´": 7138,
      "èį·": 7139,
      "cern": 7140,
      "éŀĭ": 7141,
      "thes": 7142,
      "è®¶": 7143,
      "ĠfiveĠ": 7144,
      "çļĦçŃĶ": 7145,
      "çĸ¯çĭĤ": 7146,
      "å±ıå¹ķ": 7147,
      "99": 7148,
      "danger": 7149,
      "e.Ġ": 7150,
      "nic": 7151,
      "rul": 7152,
      "ĠUn": 7153,
      "rep": 7154,
      "ĠæĪĳä»¬å¿ħé¡»": 7155,
      "okay": 7156,
      "notĠgoingĠtoĠ": 7157,
      "Ġåıĺ": 7158,
      "åĪ©çĽĬ": 7159,
      "è·ŁæĪĳ": 7160,
      "æĢ»ç»Ł": 7161,
      "haveĠthisĠ": 7162,
      "polic": 7163,
      "å¹¿åĳĬ": 7164,
      "åŁºæľ¬ä¸Ĭ": 7165,
      "è´¢å¯Į": 7166,
      "fundament": 7167,
      "mis": 7168,
      "mus": 7169,
      "sĠtoĠtheĠ": 7170,
      "ãĢĤĠåĽłä¸º": 7171,
      "æ²¿": 7172,
      "è¶ĭ": 7173,
      "izen": 7174,
      "èĭ¥": 7175,
      "ĠaĠlotĠ": 7176,
      "èı²": 7177,
      "Ġäºĭå®ŀä¸Ĭï¼Į": 7178,
      "ä¼Łå¤§": 7179,
      "kin": 7180,
      "tallyĠ": 7181,
      "Ġè¿ĺæĺ¯": 7182,
      "ĥåľ": 7183,
      "orsĠ": 7184,
      "Ġè¿Ļå°±": 7185,
      "ureĠthatĠ": 7186,
      "æ²ĥ": 7187,
      "ç©Ĩ": 7188,
      "èĤ¿": 7189,
      "ç¡¬": 7190,
      "æıĲåĪ°": 7191,
      "èĢģé¼ł": 7192,
      "æļĸ": 7193,
      "Ġå¼Ģå§ĭ": 7194,
      "WorldĠ": 7195,
      "ĥåľ¾": 7196,
      "saf": 7197,
      "æĢĿæĥ³": 7198,
      "sideĠtheĠ": 7199,
      "æĢİä¹Īæł·": 7200,
      "ä¼Łå¤§çļĦ": 7201,
      "çļĦæ´»": 7202,
      "couldn'tĠ": 7203,
      "ï¼ĮĠè¿Ļæł·": 7204,
      "Ġcas": 7205,
      "åģ¶": 7206,
      "å½»": 7207,
      "çļĦçĻ": 7208,
      "ç»Łè®¡": 7209,
      "s,ĠtheyĠ": 7210,
      "é¥®": 7211,
      "æĻļä¸Ĭ": 7212,
      "Ġåľ°": 7213,
      "gent": 7214,
      "handĠ": 7215,
      "wait": 7216,
      "ï¼Įæ¯Ķå¦Ĥ": 7217,
      "ä¹ı": 7218,
      "è¯ļ": 7219,
      "éĥ½æ²¡æľī": 7220,
      "è°±": 7221,
      "aĠlittleĠ": 7222,
      "differenceĠ": 7223,
      "ĠtalkĠabout": 7224,
      "è®¾è®¡å¸Ī": 7225,
      "ĠtakeĠtheĠ": 7226,
      "åĽĽä¸ª": 7227,
      "åģľæŃ¢": 7228,
      "åĬŀåħ¬å®¤": 7229,
      "eor": 7230,
      "mass": 7231,
      "alax": 7232,
      "æī°": 7233,
      "Ġcouldn'tĠ": 7234,
      "rib": 7235,
      "å¯¹æĪĳä»¬": 7236,
      "intro": 7237,
      "Ġcompan": 7238,
      "150": 7239,
      "bol": 7240,
      "dou": 7241,
      "egr": 7242,
      "ĠoutĠ": 7243,
      "eĠfor": 7244,
      "ï¼ĮĠè®©": 7245,
      "imageĠ": 7246,
      "ĠæĪĳä¸į": 7247,
      ",ĠandĠsoĠ": 7248,
      "ä¹Īï¼ŁčĊ": 7249,
      "éĥ½åı¯ä»¥": 7250,
      "æ³Ľ": 7251,
      ",Ġwho": 7252,
      "å¦¹": 7253,
      "givesĠ": 7254,
      "bottom": 7255,
      "ĠAfrica": 7256,
      "political": 7257,
      "especiallyĠ": 7258,
      "John": 7259,
      "gestĠ": 7260,
      "¯æķĳ": 7261,
      "itĠandĠ": 7262,
      "releas": 7263,
      "haveĠto": 7264,
      "empt": 7265,
      "term": 7266,
      "çĽ¸æ¯Ķ": 7267,
      "ĠéĤ£ä¸ª": 7268,
      "è®¤çŁ¥": 7269,
      "æĶ¾åĪ°": 7270,
      "cessful": 7271,
      "largestĠ": 7272,
      "return": 7273,
      "æĺ¯ä¸įæĺ¯": 7274,
      "ĠtoĠseeĠ": 7275,
      "youĠdon'tĠ": 7276,
      "ï¼ĮĠåİ": 7277,
      "èĢĮä¸Ķ": 7278,
      "ĠHe'sĠ": 7279,
      "éķ¿å¤§": 7280,
      "ç»ĵè®º": 7281,
      "lives.čĊ": 7282,
      "å¤±åİ»": 7283,
      "æĴĴ": 7284,
      "çĵ¶": 7285,
      "enjo": 7286,
      "ä¸Ģä»£": 7287,
      "å½ĵæĪĳä»¬": 7288,
      "å°Ĩè¦ģ": 7289,
      "éĥ¨éĹ¨": 7290,
      "èĥ¡": 7291,
      "ç¼ĺ": 7292,
      "åĪļæīį": 7293,
      "ä¹łæĥ¯": 7294,
      "launch": 7295,
      "e;": 7296,
      "ry.čĊ": 7297,
      "ofĠthoseĠ": 7298,
      "emic": 7299,
      "ä¹ĭå¤Ħ": 7300,
      "è·ĥ": 7301,
      "çģ«æĺŁ": 7302,
      "åĲĮæł·çļĦ": 7303,
      "eagu": 7304,
      "hea": 7305,
      "¢å¤į": 7306,
      "ï¼Įå¹¶ä¸Ķ": 7307,
      "æĿ¯": 7308,
      "using": 7309,
      "ĠmayĠ": 7310,
      "oppos": 7311,
      "ĠæĪĳåı¯ä»¥": 7312,
      "æķ¢": 7313,
      "Ġfin": 7314,
      "Ġabil": 7315,
      "éĿ¢åīį": 7316,
      "whatĠitĠ": 7317,
      "æ¯Ķäºļ": 7318,
      "many": 7319,
      "å¢¨": 7320,
      "changeĠtheĠ": 7321,
      "ĠaskedĠ": 7322,
      "èĬĤçĽ®": 7323,
      "æħĪ": 7324,
      "scientist": 7325,
      "åģĩè®¾": 7326,
      "ï¼ĮĠåı¯ä»¥": 7327,
      "çļĦçŃĶæ¡Ī": 7328,
      "Ġçľĭçľĭ": 7329,
      "èĩªåĬ¨": 7330,
      "æĭ¯æķĳ": 7331,
      ",ĠbyĠ": 7332,
      "ĠHe": 7333,
      "creen": 7334,
      "éĽĩ": 7335,
      "çļĦäºĭçī©": 7336,
      "time,Ġ": 7337,
      "old.čĊ": 7338,
      "æĪ¿åŃĲ": 7339,
      "appear": 7340,
      "çļĦæĮĳæĪĺ": 7341,
      "æ¢¦æĥ³": 7342,
      "thĠcentur": 7343,
      "oft": 7344,
      "å¤ı": 7345,
      "éĢĬ": 7346,
      "ĠWeĠs": 7347,
      "ä¸Ńæľī": 7348,
      "river": 7349,
      "æķ¦": 7350,
      "æ²Ł": 7351,
      "ä¹Łæ²¡æľī": 7352,
      "peopleĠtoĠ": 7353,
      "ĠButĠweĠ": 7354,
      "ä¸Ģæł·çļĦ": 7355,
      "problem.čĊ": 7356,
      "ä½ľä¸ºä¸Ģä¸ª": 7357,
      "å¹¸è¿Ĳ": 7358,
      "suppos": 7359,
      ",ĠyouĠknow,Ġ": 7360,
      "çĺ¤": 7361,
      "çļĦç©ºéĹ´": 7362,
      "æ¼Ĥäº®": 7363,
      "ä»Ķç»Ĩ": 7364,
      "hel": 7365,
      "prom": 7366,
      "Ġk": 7367,
      "around": 7368,
      "eĠthreeĠ": 7369,
      "ift": 7370,
      "proper": 7371,
      "moreĠs": 7372,
      "æĦŁåıĹ": 7373,
      "ĠInst": 7374,
      "Ġä½Ĩæĺ¯æĪĳä»¬": 7375,
      "makeĠtheĠ": 7376,
      "åĽ½å®¶çļĦ": 7377,
      "åŀĥåľ¾": 7378,
      "down.čĊ": 7379,
      "æĥĬè®¶": 7380,
      "sortĠof": 7381,
      "ĠasĠwell.čĊ": 7382,
      "camer": 7383,
      "jud": 7384,
      "eryĠ": 7385,
      "ï¼Įä¸įæĺ¯": 7386,
      "ä»ĸä»¬åľ¨": 7387,
      "è¯´âĢľ": 7388,
      "Ġfron": 7389,
      "otherĠs": 7390,
      "è¿Ļæł·ä¸Ģä¸ª": 7391,
      "ĠthereĠwasĠ": 7392,
      "æĢĿè®®": 7393,
      "partĠof": 7394,
      "Ġreal": 7395,
      "å¿«éĢŁ": 7396,
      "é¼ĵåĬ±": 7397,
      "headĠ": 7398,
      "èĶ": 7399,
      "Ġavail": 7400,
      "sĠcan": 7401,
      "offer": 7402,
      "ï¼ĮĠä¸Ģ": 7403,
      "å¾Īéķ¿": 7404,
      "toĠaĠ": 7405,
      "phon": 7406,
      "ĠisĠthatĠ": 7407,
      "remark": 7408,
      "offic": 7409,
      "ission": 7410,
      "äº¿ç¾İåħĥ": 7411,
      "å·®å¼Ĥ": 7412,
      "ĠåĲĮæł·": 7413,
      "åĳ¼åĲ¸": 7414,
      "ĠçĽ´åĪ°": 7415,
      "Ĥèļģ": 7416,
      "çļĦãĢģ": 7417,
      "æĬµ": 7418,
      "upĠ": 7419,
      "whereĠweĠ": 7420,
      "Ġagainst": 7421,
      "familyĠ": 7422,
      "èļĤèļģ": 7423,
      "Ġtend": 7424,
      "æĪĳå°±": 7425,
      "alreadyĠ": 7426,
      "å°ĸ": 7427,
      "perfect": 7428,
      "ĠéĤ£æĹ¶": 7429,
      "å¹¶éĿŀ": 7430,
      "Ġçİ°åľ¨æĪĳä»¬": 7431,
      "æĶ¹åıĺäºĨ": 7432,
      "Ġtaken": 7433,
      "åį³ä½¿": 7434,
      "South": 7435,
      "sav": 7436,
      "woman": 7437,
      "ãĢĤĠåľ¨": 7438,
      "ä¸Ĭåįĩ": 7439,
      "çļĦç«": 7440,
      "èº«è¾¹": 7441,
      "å¥³å£«": 7442,
      "Ġä¸įç®¡": 7443,
      "198": 7444,
      "stories": 7445,
      "åį«çĶŁ": 7446,
      "sĠagoĠ": 7447,
      "sĠforĠ": 7448,
      ",ĠforĠ": 7449,
      "really,Ġ": 7450,
      "Ġmet": 7451,
      "lostĠ": 7452,
      "Ġint": 7453,
      "ant.čĊ": 7454,
      "est.čĊ": 7455,
      "èī°": 7456,
      "ĠNowĠ": 7457,
      "Ġä½Ĩæĺ¯ï¼Į": 7458,
      "ĠIĠhadĠ": 7459,
      "ç¼ĵ": 7460,
      "Ġstud": 7461,
      "limit": 7462,
      "å·®ä¸įå¤ļ": 7463,
      "region": 7464,
      "ĠamazingĠ": 7465,
      "ç¨ĭåº¦ä¸Ĭ": 7466,
      "ĠOfĠcour": 7467,
      "luck": 7468,
      "wid": 7469,
      "ĠU": 7470,
      "it.": 7471,
      "stay": 7472,
      "åĩ¡": 7473,
      "èµĭ": 7474,
      "åıĺæĪĲäºĨ": 7475,
      "ï¼ĮæĪĳçļĦ": 7476,
      "cialĠ": 7477,
      "doĠweĠ": 7478,
      "èº«ä»½": 7479,
      "board": 7480,
      "evenĠthough": 7481,
      "bring": 7482,
      "åħ¶ä»ĸçļĦ": 7483,
      "èĭ±è¯Ń": 7484,
      "é©¬ä¸Ĭ": 7485,
      "ĠtakesĠ": 7486,
      "èħº": 7487,
      "specific": 7488,
      "shouldĠbeĠ": 7489,
      "ĠtermsĠofĠ": 7490,
      "gameĠ": 7491,
      "wear": 7492,
      "ä¸Ģé¡¹": 7493,
      "å¤ļæł·": 7494,
      "apt": 7495,
      "æīĢæľīè¿ĻäºĽ": 7496,
      "æĶ¾å¼ĥ": 7497,
      "åĦ¿åŃĲ": 7498,
      "ĠtalkingĠaboutĠ": 7499,
      "ĠçĦ¶åĲİæĪĳä»¬": 7500,
      "mightĠbeĠ": 7501,
      "ç£ģ": 7502,
      "exactly": 7503,
      "athematic": 7504,
      "nuclear": 7505,
      "åŃ¤": 7506,
      "Ġcult": 7507,
      "ĠthisĠisĠaĠ": 7508,
      "s,Ġor": 7509,
      "åģļäºĽ": 7510,
      "çĲ´": 7511,
      ",Ġwher": 7512,
      "æĬĬè¿Ļä¸ª": 7513,
      "creas": 7514,
      "doĠisĠ": 7515,
      "Ġproduct": 7516,
      "è®°ä½ı": 7517,
      "eĠthatĠtheĠ": 7518,
      "ĠtakingĠ": 7519,
      "heart": 7520,
      "é¥Ń": 7521,
      "roteĠ": 7522,
      "cuss": 7523,
      ",Ġas": 7524,
      "ness.čĊ": 7525,
      "Ġit.čĊ": 7526,
      "ä¸§": 7527,
      "æĺ¯æĢİæł·": 7528,
      "äººåľ¨": 7529,
      "ä½łè¦ģ": 7530,
      "å¾Ĵ": 7531,
      "Ġsign": 7532,
      "Ġsaw": 7533,
      "Ġmen": 7534,
      "ä¹Łåľ¨": 7535,
      "åĲİæĿ¥": 7536,
      "uper": 7537,
      "ĠatĠtheĠsameĠ": 7538,
      "ĠthemĠtoĠ": 7539,
      "howĠmuch": 7540,
      "æįĲ": 7541,
      "å¼ķèµ·": 7542,
      "calledĠ\"": 7543,
      "becauseĠtheyĠ": 7544,
      "camp": 7545,
      "jump": 7546,
      "niceĠ": 7547,
      "though": 7548,
      "äºĨè¿Ļ": 7549,
      "goal": 7550,
      "çľĭä¸Ĭåİ»": 7551,
      ",ĠandĠthat'sĠ": 7552,
      ",ĠwhyĠ": 7553,
      "aĠlotĠofĠ": 7554,
      "Ġactually,Ġ": 7555,
      "çĮİ": 7556,
      "å±ĤéĿ¢": 7557,
      "Ġtechnology": 7558,
      "iP": 7559,
      "æĿ¥æºĲ": 7560,
      "å¹´é¾Ħ": 7561,
      "æľĢå¥½çļĦ": 7562,
      "Ġcho": 7563,
      ",ĠinĠfact": 7564,
      "åįĥä¸ĩ": 7565,
      "çļĦæĶ¶": 7566,
      "InternetĠ": 7567,
      "æ°§åĮĸ": 7568,
      "ĠaĠcoupleĠofĠ": 7569,
      "çļĦæĶ¹åıĺ": 7570,
      "eetĠ": 7571,
      "esĠinĠ": 7572,
      "neu": 7573,
      "åıĳè¡¨": 7574,
      "èĦī": 7575,
      "æīįæĺ¯": 7576,
      "ĠtheĠbig": 7577,
      "ä¾Ŀèµĸ": 7578,
      "è¯ĬæĸŃ": 7579,
      "ĠabsolutelyĠ": 7580,
      "priv": 7581,
      "wif": 7582,
      "ï¼Įæ²¡æľī": 7583,
      ",ĠsheĠ": 7584,
      "ate,Ġ": 7585,
      "å¯¿": 7586,
      "emperat": 7587,
      "umb": 7588,
      "ĠAndĠasĠ": 7589,
      "åī©": 7590,
      "åħ¶ä¸ŃçļĦ": 7591,
      "groundĠ": 7592,
      "åĨħå¿ĥ": 7593,
      "å¹³è¡¡": 7594,
      "å²©": 7595,
      "èİ«": 7596,
      "ĠaĠlot": 7597,
      "ism.čĊ": 7598,
      "æĿ¥èĩªäºİ": 7599,
      "simplyĠ": 7600,
      "eur": 7601,
      "ĠâĢĿ": 7602,
      "çĽĴ": 7603,
      "like.čĊ": 7604,
      "çĽ¸å¯¹": 7605,
      "éķĩ": 7606,
      "ĠtrueĠ": 7607,
      "wouldĠhaveĠ": 7608,
      "æĺŁç³»": 7609,
      "betweenĠ": 7610,
      "hardĠtoĠ": 7611,
      "oxy": 7612,
      "-f": 7613,
      "æĺĨ": 7614,
      "icatedĠ": 7615,
      "okeĠ": 7616,
      "muchĠ": 7617,
      "brid": 7618,
      "version": 7619,
      "ĠallĠoverĠtheĠ": 7620,
      "æī¿è®¤": 7621,
      "ĠIĠsaid,Ġ\"": 7622,
      "æĤ£èĢħ": 7623,
      "çļĦçŁ¥": 7624,
      "çĪĨçĤ¸": 7625,
      "æĪĳæĺ¯": 7626,
      "enomen": 7627,
      "alwaysĠ": 7628,
      "è®¯": 7629,
      "ĠIĠcouldĠ": 7630,
      "ĠAndĠyou": 7631,
      "ott": 7632,
      "æīĵç®Ĺ": 7633,
      "èµĦæľ¬": 7634,
      "giveĠth": 7635,
      "Ġphys": 7636,
      "politic": 7637,
      "èĵĿèī²": 7638,
      "estern": 7639,
      "recogniz": 7640,
      "å¾ªçİ¯": 7641,
      "èī¾æ»ĭçĹħ": 7642,
      "çļĦçĬ¶": 7643,
      "cleĠ": 7644,
      "stream": 7645,
      "isĠthisĠ": 7646,
      "Ġsaid": 7647,
      "Ġcre": 7648,
      "eĠthat'sĠ": 7649,
      "forman": 7650,
      "ä¼ļåıĳçĶŁ": 7651,
      "éĤ£åĦ¿": 7652,
      "ĠAndĠif": 7653,
      "å¿į": 7654,
      "whatĠyou": 7655,
      "çļĦæĹ¶åĢĻï¼ĮĠ": 7656,
      "è¿ĩç¨ĭä¸Ń": 7657,
      "ĠOneĠofĠtheĠ": 7658,
      "çļĦç³»ç»Ł": 7659,
      "lateĠ": 7660,
      "nineĠ": 7661,
      "çļĦåıĳå±ķ": 7662,
      "åİĮ": 7663,
      "çĶ¨äºĨ": 7664,
      "Ġwhether": 7665,
      "çº¯": 7666,
      "compar": 7667,
      "åĨįæ¬¡": 7668,
      "Ġåıªè¦ģ": 7669,
      "support": 7670,
      "physical": 7671,
      "éĴĪå¯¹": 7672,
      "æĵįä½ľ": 7673,
      "craz": 7674,
      "dimension": 7675,
      "teach": 7676,
      "ingĠthat": 7677,
      "Ġwalk": 7678,
      "inĠtheĠworld": 7679,
      "Ġå¦Ĥä»Ĭ": 7680,
      "ĠIĠknow": 7681,
      "movi": 7682,
      "ĠaĠbitĠ": 7683,
      "ç»Īäºİ": 7684,
      "é¸¡": 7685,
      "è°·æŃĮ": 7686,
      "scap": 7687,
      "Ġäººç±»": 7688,
      "ä¸Ģå®¶": 7689,
      "ï¼ĮĠåĨ": 7690,
      "otic": 7691,
      "ĠItĠisĠ": 7692,
      "éĴ¢": 7693,
      "èĪĴ": 7694,
      "çĶŁæ´»ä¸Ń": 7695,
      "uniqu": 7696,
      "generation": 7697,
      "Ġå¸¦": 7698,
      "æĻºæħ§": 7699,
      "è´«åĽ°": 7700,
      "ĠåĬł": 7701,
      "é©¾é©¶": 7702,
      "les": 7703,
      "lower": 7704,
      "enorm": 7705,
      "æĺ¯çĶ±": 7706,
      "åħĦ": 7707,
      "ascin": 7708,
      "å¤ļãĢĤčĊ": 7709,
      "åŃ¦éĻ¢": 7710,
      "ĠtheyĠcan": 7711,
      "æ´ģ": 7712,
      "erĠisĠ": 7713,
      "soon": 7714,
      "éĽķ": 7715,
      "justĠtheĠ": 7716,
      "'llĠbeĠ": 7717,
      "æ¨¡æĭŁ": 7718,
      "æķĪæŀľ": 7719,
      "Ġç¬¬ä¸Ģ": 7720,
      "æĹ©æľŁ": 7721,
      "åĭĩ": 7722,
      "çļĦæ¯Ķ": 7723,
      "èļĬ": 7724,
      "çļĦæĢ§": 7725,
      "intellig": 7726,
      "a'sĠ": 7727,
      "risĠ": 7728,
      "liber": 7729,
      "ĠmadeĠ": 7730,
      "identĠ": 7731,
      "lotĠ": 7732,
      "Ġpati": 7733,
      "years,Ġ": 7734,
      "ä½ĵåĨħ": 7735,
      "å¥³åĦ¿": 7736,
      "æ¼ł": 7737,
      "é£Łåĵģ": 7738,
      "undredĠ": 7739,
      "éĺ¿å¯Į": 7740,
      "äº«åıĹ": 7741,
      "improv": 7742,
      "çļĦæĸĩåĮĸ": 7743,
      "immediat": 7744,
      "éĺ¿å¯Įæ±Ĺ": 7745,
      "çļĦæ¡": 7746,
      "Ġdist": 7747,
      "èµļ": 7748,
      "éĥ½å¾Ī": 7749,
      "aĠisĠ": 7750,
      "æģ¢å¤į": 7751,
      "backĠtoĠtheĠ": 7752,
      "å¦ĤæŀľæĪĳä»¬": 7753,
      "åķ¦": 7754,
      "æĭīåħĭ": 7755,
      "gotĠtoĠ": 7756,
      "è°Īè°Ī": 7757,
      "studentsĠ": 7758,
      "èħĲ": 7759,
      "namedĠ": 7760,
      "ĠLetĠmeĠ": 7761,
      "DP": 7762,
      "block": 7763,
      "cityĠ": 7764,
      "e?": 7765,
      "fix": 7766,
      "yeah": 7767,
      "çļĦè¡Įä¸º": 7768,
      ",ĠorĠ": 7769,
      "ingĠmyĠ": 7770,
      "æĿ¥ãĢĤčĊ": 7771,
      "å®¶éĩĮ": 7772,
      "å¹´æĿ¥": 7773,
      "åŃ¦åĪ°": 7774,
      "ĠæĿ¥èĩª": 7775,
      "Ġè°¢è°¢čĊ": 7776,
      "historyĠ": 7777,
      "è´«ç©·": 7778,
      "ĠandĠweĠ": 7779,
      "Ġsecond": 7780,
      "è¢Ń": 7781,
      "ï¼ĮæĪĳä»¬åı¯ä»¥": 7782,
      "åħ¬åĽŃ": 7783,
      "getĠtheĠ": 7784,
      "åĲĹï¼ŁâĢĿčĊ": 7785,
      "äº¤æĺĵ": 7786,
      "ĠthatĠweĠcan": 7787,
      "æĲŃ": 7788,
      "writeĠ": 7789,
      "here'sĠ": 7790,
      "super": 7791,
      "çļĦæĦıä¹ī": 7792,
      "languageĠ": 7793,
      "çĨŁæĤī": 7794,
      "ieĠ": 7795,
      "Ġæĥ³": 7796,
      "è¿Ī": 7797,
      "ing,": 7798,
      "at.čĊ": 7799,
      "as.čĊ": 7800,
      "ĠAndĠnow": 7801,
      "èĩĤ": 7802,
      "ä¿¡ä»»": 7803,
      "hadĠtheĠ": 7804,
      "è§Ĥå¿µ": 7805,
      "çģ°": 7806,
      "åķ¡": 7807,
      "å¿ħè¦ģ": 7808,
      "æĹ¥æľ¬": 7809,
      "liveĠin": 7810,
      "particip": 7811,
      "Ġå½ĵçĦ¶ï¼Į": 7812,
      "houseĠ": 7813,
      "å·¥ç¨ĭå¸Ī": 7814,
      "çĮ©çĮ©": 7815,
      "futureĠ": 7816,
      "s;": 7817,
      "ĠçĶ±": 7818,
      "incip": 7819,
      "nobodyĠ": 7820,
      "e,ĠbecauseĠ": 7821,
      "æĭĴ": 7822,
      "éĩįå¤į": 7823,
      "çļĦäººčĊ": 7824,
      "ĠåİŁ": 7825,
      "åį«æĺŁ": 7826,
      "gion": 7827,
      "holdĠ": 7828,
      "iet": 7829,
      "ouse": 7830,
      "æĺ¯âĢľ": 7831,
      "ĠImag": 7832,
      "Ġcr": 7833,
      "ä¼ļè¢«": 7834,
      "esĠof": 7835,
      "thern": 7836,
      "èĤĮ": 7837,
      "say,Ġ": 7838,
      "after": 7839,
      "ĠThat'sĠtheĠ": 7840,
      "ĠæŃ£å¦Ĥ": 7841,
      "obvious": 7842,
      "Jap": 7843,
      "deter": 7844,
      "meĠs": 7845,
      "slow": 7846,
      "ĠaĠwh": 7847,
      "æĪĳè®¤ä¸º": 7848,
      "ï¼ĮĠçĶļèĩ³": 7849,
      "ecur": 7850,
      "emberĠ": 7851,
      "combin": 7852,
      "ounc": 7853,
      "construct": 7854,
      "Ġåľ¨è¿Ļ": 7855,
      "çļĦĠæĺ¯": 7856,
      "æķĻæİĪ": 7857,
      "prec": 7858,
      "ç¡®ä¿Ŀ": 7859,
      "park": 7860,
      "éļľç¢į": 7861,
      "çļĦæŁĲ": 7862,
      "eĠthingĠ": 7863,
      "ĠTED": 7864,
      "ourceĠ": 7865,
      "å¾Īå¥½çļĦ": 7866,
      "perform": 7867,
      "éĿŀå¸¸éĩįè¦ģ": 7868,
      "ĠthereĠwereĠ": 7869,
      "print": 7870,
      "æī¾åĩº": 7871,
      "parent": 7872,
      "èµ·æĿ¥ãĢĤčĊ": 7873,
      "åľ°çĲĥä¸Ĭ": 7874,
      "éĩĩåıĸ": 7875,
      "literallyĠ": 7876,
      "ID": 7877,
      "èĥ½åľ¨": 7878,
      "knowĠwhat": 7879,
      "éĿ¢åĮħ": 7880,
      "ĠButĠwhatĠ": 7881,
      "çļĦä¸ľè¥¿čĊ": 7882,
      "ç¿°": 7883,
      "çł´åĿı": 7884,
      "ä¸įåı¯æĢĿè®®": 7885,
      "feed": 7886,
      "vict": 7887,
      "ĠhaveĠ": 7888,
      "Ġå±": 7889,
      "why": 7890,
      "else": 7891,
      "ourĠs": 7892,
      "çľĭæ³ķ": 7893,
      "tool": 7894,
      "æŃ£å¦Ĥ": 7895,
      "èĦĬ": 7896,
      "Ġass": 7897,
      "ĠtheseĠareĠ": 7898,
      "ustom": 7899,
      "ç¨³å®ļ": 7900,
      "éķ¿æľŁ": 7901,
      "å»ºè®¾": 7902,
      "ĠIt'sĠnotĠ": 7903,
      "noĠoneĠ": 7904,
      ",ĠbutĠtheĠ": 7905,
      "åĵªäºĽ": 7906,
      "finish": 7907,
      "çļĦæĽ´": 7908,
      "æī«æıı": 7909,
      "North": 7910,
      "ous,Ġ": 7911,
      "itĠturnsĠout": 7912,
      "çļĦæ±": 7913,
      "ĠæĪĳå¾Ī": 7914,
      "ĠandĠaĠ": 7915,
      "earth": 7916,
      "åģļå¾Ĺ": 7917,
      "comfort": 7918,
      "ĠallĠs": 7919,
      "æĮ¯": 7920,
      "ĠåĽŀ": 7921,
      "happen.čĊ": 7922,
      "Ġaffect": 7923,
      "çĮ«": 7924,
      "flow": 7925,
      "çªĹ": 7926,
      "people,Ġ": 7927,
      "åıĺåĮĸãĢĤčĊ": 7928,
      "æŃ¦åĻ¨": 7929,
      "8å¹´": 7930,
      "becauseĠtheĠ": 7931,
      "æ©": 7932,
      "çħ": 7933,
      "ĸåķ¡": 7934,
      "inĠyour": 7935,
      ",ĠjustĠ": 7936,
      "ä½³": 7937,
      "çļĦæ¢": 7938,
      "å°±æľī": 7939,
      "æĦĪ": 7940,
      "å®ŀåľ¨": 7941,
      "ä¹ĭæīĢä»¥": 7942,
      "quant": 7943,
      "diag": 7944,
      "åĲĮæĥħ": 7945,
      "startĠtoĠ": 7946,
      "éħ¸": 7947,
      "æĲ¬": 7948,
      "Ġterri": 7949,
      "ĠanĠinter": 7950,
      "built": 7951,
      "å·¦åı³": 7952,
      "lookedĠatĠ": 7953,
      "benef": 7954,
      "wouldn'tĠ": 7955,
      "çļĦåİŁ": 7956,
      "ituation": 7957,
      "habit": 7958,
      "çļĦæĭ": 7959,
      "allĠtheĠ": 7960,
      "Ġinformation": 7961,
      "å¥½å¤Ħ": 7962,
      "è¿ĻäºĽäºº": 7963,
      "ä½įäºİ": 7964,
      "back.čĊ": 7965,
      "happenedĠ": 7966,
      "Ġchild": 7967,
      "ç½®ä¿¡": 7968,
      "ĠJustĠ": 7969,
      "probably": 7970,
      "Ġworld.čĊ": 7971,
      "ĠbelieveĠ": 7972,
      "Facebook": 7973,
      "member": 7974,
      "sw": 7975,
      "solution": 7976,
      "saidĠ": 7977,
      "Ġ10": 7978,
      "Ġä¹ĭåĲİ": 7979,
      "check": 7980,
      "è¯´çļĦæĺ¯": 7981,
      "ostĠofĠ": 7982,
      "çĦ¦": 7983,
      "notĠbeĠ": 7984,
      "ĠButĠI": 7985,
      "çĶµæ±ł": 7986,
      "Ġwe'veĠ": 7987,
      "decad": 7988,
      "high-": 7989,
      "æ¢°": 7990,
      "modern": 7991,
      "youĠmightĠ": 7992,
      "witter": 7993,
      "Ġdon'tĠthink": 7994,
      ",Ġafter": 7995,
      "How": 7996,
      "publish": 7997,
      "toldĠ": 7998,
      "çļĦé«ĺ": 7999,
      "ing.": 8000,
      "ures": 8001,
      "Ġfriend": 8002,
      "ulyĠ": 8003,
      "howĠyou": 8004,
      "ocrat": 8005,
      "occur": 8006,
      "meĠtoĠ": 8007,
      "element": 8008,
      "ikeĠ": 8009,
      "æĹħè¡Į": 8010,
      "ĠåŁºæľ¬": 8011,
      "hic": 8012,
      "ä¸¢": 8013,
      "çļĦçĶŁçī©": 8014,
      "sĠis": 8015,
      "åħ¹": 8016,
      "çļĦæ·": 8017,
      "eĠther": 8018,
      "Ġè¿Ļä¸įæĺ¯": 8019,
      "è¿Ļä¸ªä¸ĸçķĮ": 8020,
      "è¿Ľåİ»": 8021,
      "lookedĠ": 8022,
      "æĶ¹åĸĦ": 8023,
      "justĠaĠ": 8024,
      "æĪĲä¸ºäºĨ": 8025,
      "ĠæľĢç»Ī": 8026,
      "planetĠ": 8027,
      "é²¨": 8028,
      "æ½®": 8029,
      "marri": 8030,
      "å¤ªéĺ³èĥ½": 8031,
      "ey.čĊ": 8032,
      "pastĠ": 8033,
      "sonĠ": 8034,
      "Ġä¸Ģç§į": 8035,
      "Ġauth": 8036,
      "æĺ¯å¯¹": 8037,
      "ingĠoutĠ": 8038,
      "ingĠonĠtheĠ": 8039,
      "Ġme.čĊ": 8040,
      "Ġthat'sĠaĠ": 8041,
      "åģ·": 8042,
      "ational": 8043,
      "ationĠandĠ": 8044,
      "plyĠ": 8045,
      "Ġä½łçļĦ": 8046,
      "ĠtryĠandĠ": 8047,
      "æĸ¯çī¹": 8048,
      "åħ¬å¼Ģ": 8049,
      "ression": 8050,
      "ception": 8051,
      "æĻºèĥ½": 8052,
      "èĤ¿çĺ¤": 8053,
      "y-": 8054,
      "ï¼Įäººä»¬": 8055,
      "onom": 8056,
      "report": 8057,
      "--Ġand": 8058,
      "ĠinĠmyĠ": 8059,
      "åĳĪ": 8060,
      "ĠæĪĳä»¬ä¹Ł": 8061,
      "Ġhalf": 8062,
      "upĠandĠ": 8063,
      ",ĠbutĠitĠ": 8064,
      "è§ģåĪ°": 8065,
      "makeĠitĠ": 8066,
      "ĠåĲĦ": 8067,
      "basedĠ": 8068,
      "electron": 8069,
      "valueĠ": 8070,
      "çļĦæķħäºĭãĢĤčĊ": 8071,
      "fron": 8072,
      "his": 8073,
      "ĠTw": 8074,
      "è¯´ĠâĢľ": 8075,
      "ĠherĠ": 8076,
      "äºĭãĢĤčĊ": 8077,
      "çļĦç¨": 8078,
      "çļĦçĭ": 8079,
      "conversation": 8080,
      "know.čĊ": 8081,
      "likeĠto": 8082,
      "Ġæľīäºº": 8083,
      "ç©¶ç«Ł": 8084,
      "ä»Ĭå¹´": 8085,
      "èĩ³äºİ": 8086,
      "comeĠtoĠ": 8087,
      "ĠdoĠyou": 8088,
      "ĠåºĶ": 8089,
      "B:": 8090,
      "Gre": 8091,
      "gun": 8092,
      "nut": 8093,
      "wast": 8094,
      "yl": 8095,
      "è¿ħ": 8096,
      "ely.čĊ": 8097,
      "elyĠtoĠ": 8098,
      "ä¸Ĭä¸ĩ": 8099,
      "Ġè¿Ļä¸Ģ": 8100,
      "esĠfor": 8101,
      "åıĳåĩº": 8102,
      "èĩªè¡Į": 8103,
      "è¿ĺèĥ½": 8104,
      "å¥½åĲ§": 8105,
      "obileĠ": 8106,
      "whenĠtheyĠ": 8107,
      "ï¼ĮĠä½łä¼ļ": 8108,
      "åįļå£«": 8109,
      "Ġarea": 8110,
      "çĬ¯ç½ª": 8111,
      "ç«ŀäºī": 8112,
      "ï¼ĮĠå¾Ī": 8113,
      "erĠandĠ": 8114,
      "ï¼ĮâĢĿ": 8115,
      "äºĨãĢĤâĢĿčĊ": 8116,
      "hack": 8117,
      "imm": 8118,
      "Ġdef": 8119,
      "æĢĴ": 8120,
      "e,Ġbut": 8121,
      "short": 8122,
      "IĠhadĠ": 8123,
      "Ġå°ı": 8124,
      "åĪ¶åº¦": 8125,
      "Ġform": 8126,
      "åħĥç´ł": 8127,
      "eĠthingsĠ": 8128,
      "elebr": 8129,
      "stopp": 8130,
      "ChineseĠ": 8131,
      "ey,Ġ": 8132,
      "keĠ": 8133,
      "major": 8134,
      "ingĠtoĠtheĠ": 8135,
      "ictĠ": 8136,
      "åŃ£": 8137,
      "çļĦæı": 8138,
      "ghan": 8139,
      ",ĠI'veĠ": 8140,
      "itten": 8141,
      "åĻ¨å®ĺ": 8142,
      "èįĴ": 8143,
      "answ": 8144,
      "flict": 8145,
      "è¶ħçº§": 8146,
      "abilityĠ": 8147,
      "Ġcontrol": 8148,
      "IĠcouldĠ": 8149,
      "eveĠ": 8150,
      "molec": 8151,
      "æĺ¯ä½ł": 8152,
      "ä¸ĢåĿĹ": 8153,
      "åľ¨Ġ": 8154,
      "äºĨè¿ĻäºĽ": 8155,
      "eĠthere": 8156,
      "Ġpop": 8157,
      "oph": 8158,
      "æīĢåģļ": 8159,
      "ement.čĊ": 8160,
      "è¯´ï¼ļĠâĢľ": 8161,
      "çľĭå¾ħ": 8162,
      "èĢĮå·²": 8163,
      "åĲİçļĦ": 8164,
      "å¹´ãĢĤčĊ": 8165,
      "è´¡": 8166,
      "ĠWhich": 8167,
      "ĠthereĠwas": 8168,
      "way,Ġ": 8169,
      "remain": 8170,
      "çļĦæ¯į": 8171,
      "ĠAmerican": 8172,
      "necessar": 8173,
      "Mus": 8174,
      "poseĠ": 8175,
      "wis": 8176,
      "used": 8177,
      "load": 8178,
      "ationsĠ": 8179,
      "å¾Īå¤§çļĦ": 8180,
      "ç¾Ĭ": 8181,
      "ĠwithĠaĠ": 8182,
      "ä½¿æĪĳä»¬": 8183,
      "happyĠ": 8184,
      "åĸ·": 8185,
      "åĮºåĪ«": 8186,
      "å¼ºå¤§": 8187,
      "heardĠ": 8188,
      "åł¡": 8189,
      "ï¼ĮĠä¹Łå°±æĺ¯": 8190,
      "behind": 8191,
      "oy": 8192,
      "Ġsub": 8193,
      "å¸Ń": 8194,
      "éĹ®æĪĳ": 8195,
      "ä½ĵãĢĤčĊ": 8196,
      "doĠwith": 8197,
      "ä¸ľè¥¿ãĢĤčĊ": 8198,
      "clin": 8199,
      "è¾¹çļĦ": 8200,
      "ç»ĨèĬĤ": 8201,
      "ä¹ĭä¸ĢãĢĤčĊ": 8202,
      "organiz": 8203,
      "åĴĸåķ¡": 8204,
      "Ġpolit": 8205,
      "Ġtele": 8206,
      "inform": 8207,
      "è¿Ļç±»": 8208,
      "standĠ": 8209,
      "isĠanĠ": 8210,
      "èĢĲ": 8211,
      "çİ»": 8212,
      "å¯¹å¾ħ": 8213,
      "è¾¨": 8214,
      "åĲĮæĦı": 8215,
      "ç¾İå¥½": 8216,
      "çĬ¶åĨµ": 8217,
      "vehic": 8218,
      "åŁ¹åħ»": 8219,
      "éļ¾ä»¥ç½®ä¿¡": 8220,
      "æĺĨèĻ«": 8221,
      "a-": 8222,
      "osĠ": 8223,
      "oon": 8224,
      "sĠafter": 8225,
      "ï¼Įå°±åĥı": 8226,
      "one-": 8227,
      "stri": 8228,
      "æľīå¤ļå°ĳ": 8229,
      "æķı": 8230,
      ",Ġbecaus": 8231,
      "to-": 8232,
      "æĢ§æģĭ": 8233,
      "Ġproject": 8234,
      "æīĵåį°": 8235,
      "æ¼Ķå¥ı": 8236,
      "é²¸": 8237,
      "good.čĊ": 8238,
      "Ġè°¢è°¢å¤§å®¶": 8239,
      "éĻĦè¿ĳ": 8240,
      "random": 8241,
      "fight": 8242,
      "gres": 8243,
      "ianĠ": 8244,
      "inĠS": 8245,
      "ersĠandĠ": 8246,
      "omenĠ": 8247,
      "icateĠ": 8248,
      "ed.": 8249,
      "ason": 8250,
      "nothing": 8251,
      "email": 8252,
      "åĲİéĿ¢": 8253,
      "shown": 8254,
      "doĠthat": 8255,
      "å¸¸å¸¸": 8256,
      "éľį": 8257,
      "éĥģ": 8258,
      "ĠaboutĠaĠ": 8259,
      "ĠofĠthisĠ": 8260,
      "é«ĺçļĦ": 8261,
      "truth": 8262,
      "å¦»åŃĲ": 8263,
      "ĠThereĠisĠ": 8264,
      "Ġboth": 8265,
      "voic": 8266,
      "åħįè´¹": 8267,
      "è´¡çĮ®": 8268,
      "IT": 8269,
      "be.čĊ": 8270,
      "hospital": 8271,
      "sinceĠ": 8272,
      "çļĦæīĢæľī": 8273,
      "å®½": 8274,
      "optim": 8275,
      "éĩĮĠ": 8276,
      "èĤº": 8277,
      "Ġåħ¬": 8278,
      "æ¡¥": 8279,
      "ia,Ġ": 8280,
      "businessĠ": 8281,
      "çļĦè§Ĵåº¦": 8282,
      "Ġåī": 8283,
      "æĺ¯è°ģ": 8284,
      "omentĠ": 8285,
      "ĠAny": 8286,
      "èµ¶": 8287,
      "è®©å®ĥ": 8288,
      "æĥħç»ª": 8289,
      "ouseĠ": 8290,
      "ç½ĳä¸Ĭ": 8291,
      "bringĠ": 8292,
      "èĭ±éĽĦ": 8293,
      "well.čĊ": 8294,
      "çıĬçĳļ": 8295,
      "languag": 8296,
      "journal": 8297,
      "focusĠ": 8298,
      "urban": 8299,
      "responsibil": 8300,
      "-year-oldĠ": 8301,
      "çļĦæľºä¼ļ": 8302,
      "ï¼Įçİ°åľ¨": 8303,
      "ĠWeĠdon'tĠ": 8304,
      "ever.čĊ": 8305,
      "notĠtoĠ": 8306,
      "companyĠ": 8307,
      "compassion": 8308,
      "èĥ¶": 8309,
      "ä¸Ģæł·čĊ": 8310,
      "change.čĊ": 8311,
      "two": 8312,
      "capital": 8313,
      "å¹´è½»äºº": 8314,
      "¤åħ¶æĺ¯": 8315,
      "æĲľç´¢": 8316,
      "\"Ġ": 8317,
      "çļĦè·¯": 8318,
      "æĪĳä¸į": 8319,
      "æĺł": 8320,
      "çĶ²": 8321,
      "youĠcouldĠ": 8322,
      "Ġè¿Ļå¼ł": 8323,
      "è¦ģåģļ": 8324,
      "ĠæĪĳä»¬èĥ½": 8325,
      "éĩĮï¼ĮĠ": 8326,
      "ĠBe": 8327,
      "è°İ": 8328,
      "è¿ĺåı¯ä»¥": 8329,
      "å·¥åİĤ": 8330,
      "è¿Ľä¸ĢæŃ¥": 8331,
      "èĦĨ": 8332,
      "åĥıæĺ¯": 8333,
      "ç»ĻäºĪ": 8334,
      "è¿Ļæł·ãĢĤčĊ": 8335,
      "ĠNow,ĠtheĠ": 8336,
      "ç¤¾äº¤": 8337,
      "æĸĩæĺİ": 8338,
      "åĲĦä¸ª": 8339,
      "ueĠtoĠ": 8340,
      "possibil": 8341,
      "ï¼įï¼į": 8342,
      "beginn": 8343,
      "unchĠofĠ": 8344,
      "çļ®èĤ¤": 8345,
      "ĠsomeoneĠ": 8346,
      "éĺ¿æĭīä¼¯": 8347,
      "©åŃĲ": 8348,
      "ĠæĹłè®º": 8349,
      "goes": 8350,
      "åĴĮåħ¶ä»ĸ": 8351,
      "éģĵè·¯": 8352,
      "istan": 8353,
      "Ġalmost": 8354,
      "ĠMaybeĠ": 8355,
      ".ĠL": 8356,
      "Ġproduc": 8357,
      "çļĦæķĪ": 8358,
      "Ġconnect": 8359,
      "å¤įåĪ¶": 8360,
      "ï¼ĮĠå°Ĩ": 8361,
      "çĶŁçī©åŃ¦": 8362,
      "å²ģçļĦ": 8363,
      "èİ·åıĸ": 8364,
      "ä¼¦æķ¦": 8365,
      "introduc": 8366,
      "çļĦæ¢¦": 8367,
      "!\"čĊ": 8368,
      "aĠg": 8369,
      ",ĠofĠcourse,Ġ": 8370,
      ",Ġright?čĊ": 8371,
      "oneĠthatĠ": 8372,
      "orĠtheĠ": 8373,
      "esĠfrom": 8374,
      "çĽŁ": 8375,
      "embr": 8376,
      "createdĠ": 8377,
      "èµĦæĸĻ": 8378,
      "growth": 8379,
      "labor": 8380,
      "çļĦæ¸¸": 8381,
      "Sh": 8382,
      "War": 8383,
      "sun": 8384,
      "ĠæŃ¤": 8385,
      ",ĠyouĠcan": 8386,
      "es,ĠbutĠ": 8387,
      "æĿī": 8388,
      "eĠthought": 8389,
      "ĠThoseĠ": 8390,
      "åı¯æĮģç»Ń": 8391,
      "ilk": 8392,
      "ifĠitĠ": 8393,
      "ures.čĊ": 8394,
      "è¿ĩäºĨ": 8395,
      "ector": 8396,
      "ured": 8397,
      ".ĠâĻ«ĠâĻ«": 8398,
      "carbon": 8399,
      "storiesĠ": 8400,
      "iction": 8401,
      "æĶ¶åĪ°": 8402,
      "place.čĊ": 8403,
      "è¿½æ±Ĥ": 8404,
      "çļĦæĥħåĨµä¸ĭ": 8405,
      "likeĠthat.čĊ": 8406,
      "çļĦçĪ¶æ¯į": 8407,
      "çļĦæ¶Ī": 8408,
      "Con": 8409,
      "Ger": 8410,
      "hot": 8411,
      "Ġ2": 8412,
      "Ġäºº": 8413,
      "çļĦï¼ŁčĊ": 8414,
      "æĺ¯ï¼ļ": 8415,
      "imul": 8416,
      "lood": 8417,
      "ĠAndĠifĠyou": 8418,
      "ĠæĪĳä»¬å·²ç»ı": 8419,
      "å¼Ģå¿ĥ": 8420,
      "e,ĠthatĠ": 8421,
      "Ġbeen": 8422,
      "dee": 8423,
      "åĲ§čĊ": 8424,
      "çº¦ç¿°": 8425,
      "question.čĊ": 8426,
      "study": 8427,
      "room.čĊ": 8428,
      "æİĴæĶ¾": 8429,
      "sym": 8430,
      "sych": 8431,
      "oneĠofĠtheseĠ": 8432,
      "èģĶåĲĪåĽ½": 8433,
      "HIV": 8434,
      "fant": 8435,
      "mit": 8436,
      "çļĦåħ³ç³»": 8437,
      "ä¸įä»ħä»ħæĺ¯": 8438,
      "åŃķ": 8439,
      "å¸ķ": 8440,
      "ä¸Ĭï¼ĮĠ": 8441,
      "æĪĲåĳĺ": 8442,
      "èĢħä»¬": 8443,
      "Ġè¿Ļæĺ¯æĪĳä»¬": 8444,
      "impact": 8445,
      "ï¼Įä½łåı¯ä»¥": 8446,
      "Univers": 8447,
      "åĿļæĮģ": 8448,
      "aim": 8449,
      "oleĠ": 8450,
      "won'tĠ": 8451,
      "ĠæĢ»": 8452,
      "Ġaway.čĊ": 8453,
      "çļĦæīĭ": 8454,
      "sĠlater": 8455,
      "åıł": 8456,
      "åľ¨ç¾İåĽ½": 8457,
      "èĢį": 8458,
      "å¸ģ": 8459,
      "çľł": 8460,
      "åį·": 8461,
      "çĶ¨æĪ·": 8462,
      "separ": 8463,
      "Ġaction": 8464,
      "ç´¯": 8465,
      "ĠRight": 8466,
      "æ¿ĢåĬ¨": 8467,
      "ä¾ĿçĦ¶": 8468,
      "youĠwantĠtoĠ": 8469,
      "patient": 8470,
      "çĩĥæĸĻ": 8471,
      "éĤ®ä»¶": 8472,
      "ĠprobablyĠ": 8473,
      ",Ġall": 8474,
      "fem": 8475,
      "y.": 8476,
      "çļĦä¹¦": 8477,
      "ï¼ĮéĿŀå¸¸": 8478,
      "ï¼Įä»¥åıĬ": 8479,
      "æĺĤ": 8480,
      "åĪ·": 8481,
      "Ġpict": 8482,
      "ĠæĪĳä¸įçŁ¥éģĵ": 8483,
      "goĠtoĠtheĠ": 8484,
      "å°±è¦ģ": 8485,
      "è¡°": 8486,
      "Ġfac": 8487,
      "gett": 8488,
      "e,ĠtheyĠ": 8489,
      "åħĭæĸ¯": 8490,
      "æĪĲä¸ºä¸Ģä¸ª": 8491,
      "åĩºæĿ¥ãĢĤčĊ": 8492,
      "interestedĠin": 8493,
      "ç½Ĺæĸ¯": 8494,
      "communityĠ": 8495,
      "ä¼¤å®³": 8496,
      "å±ħä½ı": 8497,
      "æ£Ģæµĭ": 8498,
      "çĸ«èĭĹ": 8499,
      "æ±¡æŁĵ": 8500,
      "èĽĭçĻ½è´¨": 8501,
      "fi": 8502,
      "field": 8503,
      "uzz": 8504,
      "wa": 8505,
      "onc": 8506,
      "itĠfor": 8507,
      "irm": 8508,
      "å°±å¼Ģå§ĭ": 8509,
      "ä¹Łèĥ½": 8510,
      "æĪĲåįĥ": 8511,
      "antlyĠ": 8512,
      "åıĺéĿ©": 8513,
      "whenĠI": 8514,
      "Ġtherefor": 8515,
      "åĪĽæĦı": 8516,
      "æĢİä¹Īåģļ": 8517,
      "light.čĊ": 8518,
      "capt": 8519,
      "Ġinterest": 8520,
      "çĹĽèĭ¦": 8521,
      "èĮĥåĽ´åĨħ": 8522,
      "Ġpercent.čĊ": 8523,
      "çļĦçĥŃ": 8524,
      "65": 8525,
      "GDP": 8526,
      "fourĠ": 8527,
      "Ġthrow": 8528,
      "ondĠ": 8529,
      "another": 8530,
      "esĠthatĠareĠ": 8531,
      "ä¸Ģä»¶äºĭ": 8532,
      "itut": 8533,
      "çļĦç¼": 8534,
      "æ³°": 8535,
      "ĠWhereĠ": 8536,
      "ĠWhat'sĠ": 8537,
      "èµ°è¿Ľ": 8538,
      "Ġå¯¹æĪĳ": 8539,
      "ç¬ĳå£°": 8540,
      "medic": 8541,
      "çļĦæł¸": 8542,
      "ĠChin": 8543,
      "particularlyĠ": 8544,
      "IĠwantedĠtoĠ": 8545,
      "ç§ĺå¯Ĩ": 8546,
      "é¹ħ": 8547,
      "æī§è¡Į": 8548,
      "WeĠ": 8549,
      "ga": 8550,
      "sĠasĠ": 8551,
      "Ĭè¯ī": 8552,
      "çļĦåŁİå¸Ĥ": 8553,
      "ing?čĊ": 8554,
      "alĠs": 8555,
      "éĹª": 8556,
      "encour": 8557,
      "Ġthis?čĊ": 8558,
      "åı¯èĥ½æĢ§": 8559,
      "éªĹ": 8560,
      "å¹³åı°": 8561,
      "ĠLook": 8562,
      "æĸĩåŃĹ": 8563,
      "ĠfromĠ": 8564,
      "learningĠ": 8565,
      "issueĠ": 8566,
      "æ»¡è¶³": 8567,
      "çļĦæķĻèĤ²": 8568,
      "è¿ħéĢŁ": 8569,
      "Is": 8570,
      "ring": 8571,
      "refl": 8572,
      "stag": 8573,
      "åºĦ": 8574,
      "çİ°åľº": 8575,
      "æĹ¶ï¼ĮĠæĪĳ": 8576,
      "åĵ²": 8577,
      "ä¾§": 8578,
      "ï¼ĮĠèĢĮä¸įæĺ¯": 8579,
      "join": 8580,
      "democrac": 8581,
      "æħ¢æħ¢": 8582,
      "è´Ńä¹°": 8583,
      "K:": 8584,
      "Ġè·Ł": 8585,
      "unk": 8586,
      "plastic": 8587,
      "è½´": 8588,
      "we'dĠ": 8589,
      "enĠitĠ": 8590,
      "ĠHeĠsaid,Ġ\"": 8591,
      "èĬ¬": 8592,
      "choic": 8593,
      "äºĮæ°§åĮĸ": 8594,
      "æĿĥåĬĽ": 8595,
      "onderful": 8596,
      "wardĠ": 8597,
      "æ¨": 8598,
      "è¿Ļæ¬¡": 8599,
      "it,ĠandĠ": 8600,
      "ster": 8601,
      "Ġdep": 8602,
      "ï¼ĮĠå¸": 8603,
      "è¯´æ³ķ": 8604,
      "ationĠ": 8605,
      "å¾Ĺä»¥": 8606,
      "åģļè¿ĩ": 8607,
      "someĠs": 8608,
      "ĠthereĠisĠaĠ": 8609,
      "not.čĊ": 8610,
      "åįģäº¿": 8611,
      "ĠåĲ¬": 8612,
      "æĳĩ": 8613,
      "collabor": 8614,
      "Ġdiscover": 8615,
      "ĠAllĠright": 8616,
      "ï¼ĮĠå¦Ĥæŀľä½ł": 8617,
      "Ġguy": 8618,
      "millionsĠofĠ": 8619,
      "éĢĶå¾Ħ": 8620,
      "]Ġ[": 8621,
      "scar": 8622,
      "yz": 8623,
      "anz": 8624,
      "ä¸ĢåįĬ": 8625,
      "ĠæĪĳçĽ¸ä¿¡": 8626,
      "å¯Ħ": 8627,
      "ä½Ĩæĺ¯": 8628,
      "likeĠs": 8629,
      "inĠL": 8630,
      "someĠofĠ": 8631,
      "ister": 8632,
      "ĠéĤ£éĩĮ": 8633,
      "çī¹å¾ģ": 8634,
      "ĠdoesĠ": 8635,
      "ĠIt'sĠtheĠ": 8636,
      "video": 8637,
      "histor": 8638,
      "ĠbeforeĠ": 8639,
      "fli": 8640,
      "pack": 8641,
      "çļĦç»ıæµİ": 8642,
      "imateĠ": 8643,
      "å¦Ĥä»Ĭ": 8644,
      "ç¾İéĩĳ": 8645,
      "justĠtoĠ": 8646,
      "åĲ¬èµ·æĿ¥": 8647,
      "deliver": 8648,
      "æ¶ĪèĢĹ": 8649,
      "breath": 8650,
      "ĠæĪĸè®¸": 8651,
      "ç£¨": 8652,
      ",Ġt": 8653,
      "1000": 8654,
      "Am": 8655,
      "aign": 8656,
      "sleep": 8657,
      "Ġé©¬": 8658,
      "ĮæľĽ": 8659,
      ",ĠM": 8660,
      "ä¸Ģéĥ¨åĪĨ": 8661,
      "arch": 8662,
      "åľ¨åº§": 8663,
      "ä¸įå¤Ł": 8664,
      "forward": 8665,
      "withĠthisĠ": 8666,
      "æľĢåĸľæ¬¢": 8667,
      "respect": 8668,
      "æľºåĪ¶": 8669,
      "Ġargu": 8670,
      "Ġassum": 8671,
      "çļĦäººĠ": 8672,
      "åº¦ãĢĤčĊ": 8673,
      "observ": 8674,
      "è¯Ŀé¢ĺ": 8675,
      "åĪĽå»º": 8676,
      "Ġbeli": 8677,
      "10å¹´": 8678,
      "degre": 8679,
      "edĠintoĠ": 8680,
      "æĳ¸": 8681,
      "éĩĬæĶ¾": 8682,
      "important.čĊ": 8683,
      "ootĠ": 8684,
      "lesson": 8685,
      "incrediblyĠ": 8686,
      "èľľèľĤ": 8687,
      "eign": 8688,
      "pet": 8689,
      "ï¼ĮçĶļèĩ³": 8690,
      "ãĢĤĠä»ĸä»¬": 8691,
      "esĠto": 8692,
      "è¿ĻåĦ¿": 8693,
      "ä¸ªå°ıæĹ¶": 8694,
      "æľīæīĢ": 8695,
      "æĥĳ": 8696,
      "æ¯ıæ¬¡": 8697,
      "ĠMostĠ": 8698,
      "ĠCom": 8699,
      "ĠyouĠknow": 8700,
      "iesĠareĠ": 8701,
      "controll": 8702,
      "ĠEven": 8703,
      "æ·±åħ¥": 8704,
      "organism": 8705,
      "æĹ©ä¸Ĭ": 8706,
      "èĳĹåĲį": 8707,
      "GodĠ": 8708,
      "card": 8709,
      "sĠonĠ": 8710,
      "alle": 8711,
      "äººåĴĮ": 8712,
      "ä¸Ģä¸ªå°ı": 8713,
      "éĩĮčĊ": 8714,
      "æ¬²": 8715,
      ",ĠIĠcan": 8716,
      "ĠthinkingĠaboutĠ": 8717,
      "cienceĠ": 8718,
      "æ¯ĶèµĽ": 8719,
      "howĠitĠ": 8720,
      "makeĠa": 8721,
      "wayĠweĠ": 8722,
      "çĶŁåĳ½çļĦ": 8723,
      "Ġsocial": 8724,
      "æĳĦå½±": 8725,
      "profession": 8726,
      "çļĦéĥ¨åĪĨ": 8727,
      "erc": 8728,
      "å°ļ": 8729,
      "æīĶ": 8730,
      "ä»Ģä¹Īåĳ¢ï¼ŁčĊ": 8731,
      ",ĠandĠthisĠ": 8732,
      "çľĭåĪ°çļĦæĺ¯": 8733,
      "Ġ--ĠandĠ": 8734,
      "ç»ĦåĲĪ": 8735,
      "ĠplaceĠ": 8736,
      "having": 8737,
      "å¯Ĩçłģ": 8738,
      "caseĠ": 8739,
      "African": 8740,
      "Ġbiolog": 8741,
      "Ġparticular": 8742,
      "è¶ĭåĬ¿": 8743,
      "600": 8744,
      "èķ": 8745,
      "ĠéľĢè¦ģ": 8746,
      "æĪĳèĩªå·±": 8747,
      "ï¼ĮĠéĤ£äºĽ": 8748,
      "åľ¨ä½ł": 8749,
      "useful": 8750,
      "å¹¼": 8751,
      "chea": 8752,
      "withĠyou": 8753,
      "shop": 8754,
      "cipl": 8755,
      "ĠWeĠwereĠ": 8756,
      "å·´è¥¿": 8757,
      "æľīä¸Ģå¤©": 8758,
      "æľīäºĽäºº": 8759,
      "mostĠofĠ": 8760,
      "æ°ĶåĢĻåıĺåĮĸ": 8761,
      "RI": 8762,
      "æĪª": 8763,
      "onstr": 8764,
      "Ġsix": 8765,
      "åĩĢ": 8766,
      "åĮ¹": 8767,
      "çŁ¿": 8768,
      "æĬĬä»ĸä»¬": 8769,
      "å½ĵä¸Ń": 8770,
      "çĽ¸æľº": 8771,
      "çļĦæĹ¥": 8772,
      "çļĦæĹł": 8773,
      "ç¬¬ä¸ī": 8774,
      "livesĠ": 8775,
      "éĩĳèŀį": 8776,
      "æµģè¡Į": 8777,
      "å¨ľ": 8778,
      "weĠcanĠ": 8779,
      "Ġï¼Īé¼ĵæİĮï¼ī": 8780,
      ",Ġa": 8781,
      "aph": 8782,
      "drop": 8783,
      "further": 8784,
      "ilos": 8785,
      "ovi": 8786,
      "pover": 8787,
      "ï¼ĮæĪĸ": 8788,
      "æĪĳèĥ½": 8789,
      "icult": 8790,
      "urt": 8791,
      "å¾Īå®¹æĺĵ": 8792,
      "likelyĠtoĠ": 8793,
      "çī©ãĢĤčĊ": 8794,
      "éĿ¢ãĢĤčĊ": 8795,
      "ç©´": 8796,
      "Ġalter": 8797,
      "ĠweĠhaveĠ": 8798,
      "è¥¿åĵ¥": 8799,
      "Ġsee,Ġ": 8800,
      "haveĠtoĠbeĠ": 8801,
      "expert": 8802,
      "æļĤ": 8803,
      "Ġå¤§çº¦": 8804,
      "ĠtriedĠtoĠ": 8805,
      "fullyĠ": 8806,
      "'veĠgotĠtoĠ": 8807,
      "witch": 8808,
      "incredibleĠ": 8809,
      "çģŃç»Ŀ": 8810,
      "ateĠs": 8811,
      "ically,Ġ": 8812,
      "ingĠfrom": 8813,
      "outsid": 8814,
      "outsideĠ": 8815,
      "âĢĿĠ": 8816,
      "ander": 8817,
      "concern": 8818,
      "looksĠlikeĠ": 8819,
      "ĠtheĠfut": 8820,
      "Ġweb": 8821,
      "ĠaĠlittleĠbit": 8822,
      "passion": 8823,
      "èĻļæĭŁ": 8824,
      "çļĦç¥ŀç»ı": 8825,
      "Har": 8826,
      "ufact": 8827,
      "Ġä¸Ĭ": 8828,
      "ĠçĽ®åīį": 8829,
      "italĠ": 8830,
      "refer": 8831,
      "ä¸ªä½ĵ": 8832,
      "Ġmusic": 8833,
      "weĠdon'tĠ": 8834,
      "ĠSh": 8835,
      "æĭĽ": 8836,
      "è¿Ļä¸ªè¯į": 8837,
      "æ²¡ä»Ģä¹Ī": 8838,
      "Ġalthough": 8839,
      "Ġå®ĥçļĦ": 8840,
      "ĠDo": 8841,
      "learnedĠ": 8842,
      "Ġartist": 8843,
      "ç©¿è¿ĩ": 8844,
      "Ġsay,Ġ\"": 8845,
      "çļĦæ°Ķ": 8846,
      "alifor": 8847,
      "sequenc": 8848,
      "ä¸°å¯Į": 8849,
      "äºĮæ°§åĮĸç¢³": 8850,
      "åĹ¯": 8851,
      "Ġèĩª": 8852,
      "çļĦè¿Ļä¸ª": 8853,
      "ä¸įå¤ª": 8854,
      "Ġdire": 8855,
      "Ġbl": 8856,
      "ĠareĠweĠ": 8857,
      "ĠButĠitĠ": 8858,
      "å£ģ": 8859,
      "ĠIĠjustĠ": 8860,
      "ĠCon": 8861,
      "ableĠto": 8862,
      "æĸĩç«ł": 8863,
      "ĠEveryĠ": 8864,
      "ç¾¤ä½ĵ": 8865,
      "Ġç¬¬ä¸Ģä¸ª": 8866,
      "suffer": 8867,
      "IĠwantĠto": 8868,
      "åı¦å¤ĸä¸Ģä¸ª": 8869,
      "çļĦçŁ¥è¯Ĩ": 8870,
      "PS": 8871,
      "avi": 8872,
      "åĹ": 8873,
      "ĠåĹ¯": 8874,
      "å¯¸": 8875,
      "resist": 8876,
      "ĠtheĠsecondĠ": 8877,
      "Ġä»ĸä»¬ä¼ļ": 8878,
      "endedĠup": 8879,
      "whenĠtheĠ": 8880,
      "Ġchalleng": 8881,
      "broughtĠ": 8882,
      "ĠButĠthen": 8883,
      "èİİ": 8884,
      "ĠåĪĨ": 8885,
      "ĠhowĠtoĠ": 8886,
      "idea.čĊ": 8887,
      "åĮħåĲ«": 8888,
      "å¸®åĬ©æĪĳä»¬": 8889,
      "çķĻä¸ĭ": 8890,
      "ĠacrossĠ": 8891,
      "ç¥ŀç»ıåħĥ": 8892,
      "digital": 8893,
      "ï¼ĮĠåĲĮæĹ¶": 8894,
      "è¾©è®º": 8895,
      "åħĦå¼Ł": 8896,
      "fascin": 8897,
      "lap": 8898,
      "sha": 8899,
      "takeĠ": 8900,
      "ĠæŃ£åľ¨": 8901,
      "stayĠ": 8902,
      "ä¸įä»ħä»ħ": 8903,
      "ingĠofĠtheĠ": 8904,
      "ä¸ºæŃ¢": 8905,
      "çĽ²": 8906,
      "è¯´ï¼ĮĠ": 8907,
      "å¾Īæľīè¶£": 8908,
      "neg": 8909,
      "è¢ĸ": 8910,
      "æĻ¨": 8911,
      "è±ª": 8912,
      "å®Įæķ´": 8913,
      ",ĠitĠwasĠ": 8914,
      "Ġåı¦ä¸Ģä¸ª": 8915,
      "Ġpoint": 8916,
      "æ£ĢæŁ¥": 8917,
      "detail": 8918,
      "perhapsĠ": 8919,
      "GoogleĠ": 8920,
      "Can": 8921,
      "Car": 8922,
      "æ¦": 8923,
      "ĠæĹł": 8924,
      "Ġä¸¤": 8925,
      "ed?čĊ": 8926,
      "åŃĶ": 8927,
      "âĢĺ": 8928,
      "ridĠ": 8929,
      "éģ¥": 8930,
      "Ġåľ¨æĪĳä»¬": 8931,
      "æĽ´æľī": 8932,
      "æľºæ¢°": 8933,
      "ityĠofĠtheĠ": 8934,
      "åİŁå§ĭ": 8935,
      "Ġå¾Ĺ": 8936,
      "Ġtechnology.čĊ": 8937,
      "Ġdiseas": 8938,
      "åĨľä¸ļ": 8939,
      "daughter": 8940,
      "renĠ": 8941,
      "è²": 8942,
      "Ġton": 8943,
      "insp": 8944,
      "ofĠtheir": 8945,
      "ä¸įè§ģ": 8946,
      "useĠtheĠ": 8947,
      "ĠæĪĳçļĦæĦıæĢĿ": 8948,
      "e,ĠitĠ": 8949,
      "osaur": 8950,
      "ablyĠ": 8951,
      "åĩºä¸Ģä¸ª": 8952,
      "ç»ĻäºĨ": 8953,
      "çľŁçļĦæĺ¯": 8954,
      "Ġåı«": 8955,
      "Ġbegan": 8956,
      "åıįå¯¹": 8957,
      "ç¬ĳï¼ī": 8958,
      "Ġäºİæĺ¯æĪĳä»¬": 8959,
      "connection": 8960,
      "âĢĻsĠ": 8961,
      "Ġgrowth": 8962,
      "ï¼ĮĠåİ»": 8963,
      "èł": 8964,
      "whiteĠ": 8965,
      "è¯´æľį": 8966,
      "åľ°Ġ": 8967,
      "add": 8968,
      "ä»Ģä¹ĪčĊ": 8969,
      "èĢħčĊ": 8970,
      "æĬĬè¿Ļ": 8971,
      "çļĦäººåı£": 8972,
      "wasn'tĠ": 8973,
      "ĠèĢĮæĪĳä»¬": 8974,
      "impactĠ": 8975,
      "ï¼Įä½łä¼ļ": 8976,
      "ĠthroughĠ": 8977,
      "devic": 8978,
      "surviv": 8979,
      "çļĦæķ°éĩı": 8980,
      "Ġä½łåı¯ä»¥çľĭåĪ°": 8981,
      "ä¼Ĭæĸ¯": 8982,
      "ĠaroundĠtheĠworld": 8983,
      "momentĠ": 8984,
      "åĺ´": 8985,
      "processĠ": 8986,
      "è¡£æľį": 8987,
      "æĪĲåįĥä¸Ĭä¸ĩ": 8988,
      "Ġif": 8989,
      "influ": 8990,
      "ĠåĿ": 8991,
      "rect": 8992,
      "ĠandĠtoĠ": 8993,
      "æİª": 8994,
      "iger": 8995,
      "ï¼ļčĊ": 8996,
      "æĬĬæĪĳ": 8997,
      "çļĦäººçĶŁ": 8998,
      "æıĲéĨĴ": 8999,
      "getting": 9000,
      "pren": 9001,
      "desp": 9002,
      "çĬ¹": 9003,
      "çļĦäºĭæĥħčĊ": 9004,
      "called": 9005,
      "ĠHeĠwasĠ": 9006,
      "æľªæĿ¥çļĦ": 9007,
      "çıį": 9008,
      "çļĦç¬¬ä¸Ģä¸ª": 9009,
      "è®¤è¯ĨåĪ°": 9010,
      "ĠHere'sĠ": 9011,
      "æ¹¾": 9012,
      "Ġdoesn'tĠ": 9013,
      "Ġdrug": 9014,
      "suggest": 9015,
      "tar": 9016,
      "ingĠtheir": 9017,
      "åĪĳ": 9018,
      "repren": 9019,
      "ï¼ĮĠçİ°åľ¨": 9020,
      "ç»¼": 9021,
      "ä¸įäºĨ": 9022,
      "ĠæĪĳä»¬çŁ¥éģĵ": 9023,
      ",ĠbecauseĠtheĠ": 9024,
      "ä¹ĭç±»": 9025,
      "éĹ®é¢ĺçļĦ": 9026,
      "Ġä»ĸçļĦ": 9027,
      "ï¼ĮĠæĪĳæĥ³": 9028,
      "æľŁéĹ´": 9029,
      "åĳĺå·¥": 9030,
      "çĮ´": 9031,
      "beginningĠ": 9032,
      "ä¼ĺç§Ģ": 9033,
      "chemical": 9034,
      "çļĦæ³ķ": 9035,
      "familiar": 9036,
      "Japan": 9037,
      "çļĦæ¯įäº²": 9038,
      "Qu": 9039,
      "çĴ": 9040,
      "Ġthreat": 9041,
      "çļĦä¸Ģç§į": 9042,
      "çļĦé¡¹çĽ®": 9043,
      "æĪĳåı¯ä»¥": 9044,
      "edĠasĠ": 9045,
      "éĢ»": 9046,
      "éļ¾æ°ĳ": 9047,
      "sĠintoĠ": 9048,
      "éĢīä¸¾": 9049,
      "ç®ĢçĽ´": 9050,
      "thingsĠthatĠ": 9051,
      "å¹¿æ³Ľ": 9052,
      "eachĠother.čĊ": 9053,
      "eĠtheirĠ": 9054,
      "ä»İæĿ¥æ²¡æľī": 9055,
      "slam": 9056,
      ".ĠI": 9057,
      ".ĠTheĠ": 9058,
      "±ä¹Ĳ": 9059,
      "çļĦä¸į": 9060,
      "oudĠ": 9061,
      "Ġwatch": 9062,
      "icsĠ": 9063,
      "ï¼ĮĠäººä»¬": 9064,
      "where": 9065,
      "æĿ¥çľĭçľĭ": 9066,
      "ĠmaybeĠ": 9067,
      "Ġpossi": 9068,
      "ĠbyĠtheĠ": 9069,
      "olk": 9070,
      "åŃĲï¼Į": 9071,
      "she'sĠ": 9072,
      "Ġä½łèĥ½": 9073,
      "ç®Ń": 9074,
      "éļĨ": 9075,
      "åĽ¾ä¹¦": 9076,
      "ĠdoingĠ": 9077,
      ".ĠR": 9078,
      "åİŁåĪĻ": 9079,
      "ĠOnĠtheĠ": 9080,
      "è§£åĨ³æĸ¹æ¡Ī": 9081,
      "å¾®çĶŁçī©": 9082,
      "æİĮæı¡": 9083,
      "ĠAmerica": 9084,
      "rightĠnow.čĊ": 9085,
      "Ġdata": 9086,
      "çļĦç¾İåĽ½": 9087,
      "oftwareĠ": 9088,
      "\"TheĠ": 9089,
      ".ĠAndĠ": 9090,
      "freeĠ": 9091,
      "sustain": 9092,
      "edĠabout": 9093,
      "æī®": 9094,
      "ï¼ĮĠåĮ": 9095,
      "å¾Īå°ĳ": 9096,
      "she": 9097,
      "æĢ§čĊ": 9098,
      "Ġä»ĸä»¬çļĦ": 9099,
      "workingĠ": 9100,
      "moreĠandĠ": 9101,
      "Ġprot": 9102,
      "æľŁå¾ħ": 9103,
      "é»İ": 9104,
      "ĠanybodyĠ": 9105,
      "have.čĊ": 9106,
      "æ¿ĢåĬ±": 9107,
      "æĬ¥éģĵ": 9108,
      "éĢĤåĲĪ": 9109,
      "Ġåĩº": 9110,
      "ĠthousandĠ": 9111,
      "çļĦç¤¾åĮº": 9112,
      "èģļéĽĨ": 9113,
      "çº¢èī²": 9114,
      "æµªè´¹": 9115,
      "æı´åĬ©": 9116,
      "æ¨ª": 9117,
      "hoodĠ": 9118,
      "ancial": 9119,
      "stageĠ": 9120,
      "æĪĳä»¬å¯¹": 9121,
      "çļĦæ½": 9122,
      "Ġserv": 9123,
      "ĠThis": 9124,
      "else.čĊ": 9125,
      "Ġpublic": 9126,
      "amountĠofĠ": 9127,
      "eĠsaid": 9128,
      "åİ»å¹´": 9129,
      "Ġgirl": 9130,
      "Ġaren'tĠ": 9131,
      "éĥ¨èĲ½": 9132,
      "ĠèĢĮè¿Ļ": 9133,
      "çļĦæĹ¶åĪ»": 9134,
      "ityĠisĠ": 9135,
      "Ġafford": 9136,
      "ĠwhatĠweĠ": 9137,
      "remend": 9138,
      "questionĠis": 9139,
      "sheĠwasĠ": 9140,
      "heartĠ": 9141,
      "åŁºåĽłç»Ħ": 9142,
      "ä¼Ĭæĭīåħĭ": 9143,
      "æĦŁè§īåĪ°": 9144,
      "ĠThat'sĠaĠ": 9145,
      "èĪŀåı°": 9146,
      "è¾ĵåħ¥": 9147,
      "æ¯ıä¸ªäººéĥ½": 9148,
      "niqu": 9149,
      "7å¹´": 9150,
      "Mon": 9151,
      "manĠ": 9152,
      "r.": 9153,
      "ĠjustĠ": 9154,
      "Ġtext": 9155,
      "Ġaudi": 9156,
      "edĠwithĠ": 9157,
      "ĠæĪĳè¿ĺ": 9158,
      "esĠon": 9159,
      "ily.čĊ": 9160,
      "e,Ġor": 9161,
      "Ġfar": 9162,
      "Ġfre": 9163,
      "adv": 9164,
      "able,Ġ": 9165,
      "åĩºçİ°åľ¨": 9166,
      "percent": 9167,
      "ä»İäºĭ": 9168,
      "å°ĨæĿ¥": 9169,
      "IĠknow": 9170,
      "ignor": 9171,
      "parentsĠ": 9172,
      "èİī": 9173,
      "ingĠtogether": 9174,
      "planet.čĊ": 9175,
      "é»ĳæļĹ": 9176,
      "çİ©åħ·": 9177,
      "nerv": 9178,
      "çļĦæĬķ": 9179,
      "éĩĩçĶ¨": 9180,
      "institution": 9181,
      "æĴŃæĶ¾": 9182,
      "æĭĴç»Ŀ": 9183,
      "%ãĢĤčĊ": 9184,
      ".5": 9185,
      "brainĠ": 9186,
      "laugh": 9187,
      "Ġä»»ä½ķ": 9188,
      ",Ġis": 9189,
      "æľµ": 9190,
      "ĠthatĠheĠ": 9191,
      "Ġsm": 9192,
      "ĠæĪĳä»¬ä¼ļ": 9193,
      "è°ĭ": 9194,
      "å¥½äºĨ": 9195,
      "Ġgiv": 9196,
      "ï¼ĮæĪĳåľ¨": 9197,
      "å£®": 9198,
      "å±ķçİ°": 9199,
      "startingĠtoĠ": 9200,
      "æľĽè¿ľ": 9201,
      "happensĠ": 9202,
      "IĠwill": 9203,
      "èµ°åĪ°": 9204,
      "å®īå¾·": 9205,
      "åıĳå±ķä¸Ń": 9206,
      "basically": 9207,
      "åĩĨç¡®": 9208,
      "ĠéĤ£ä¹Īï¼Į": 9209,
      "åįļå®¢": 9210,
      "è¡Ģç®¡": 9211,
      "ĠæĪĸæĺ¯": 9212,
      "produceĠ": 9213,
      "çļĦç¥ĸ": 9214,
      "hundredsĠofĠ": 9215,
      "Ġå®Įåħ¨": 9216,
      "bank": 9217,
      "ĠthirdĠ": 9218,
      "ĠæĪĳçİ°åľ¨": 9219,
      "doc": 9220,
      "canc": 9221,
      "soĠmanyĠ": 9222,
      "æ³ķåĽ½": 9223,
      "æĥħæĦŁ": 9224,
      "ĠWeĠneedĠtoĠ": 9225,
      "ï¼ģâĢĿčĊ": 9226,
      "æĬ¥åĳĬ": 9227,
      "Ġterror": 9228,
      "general": 9229,
      "lookingĠat": 9230,
      "ĠbecameĠ": 9231,
      "ä¼Ĭæĸ¯åħ°": 9232,
      "1,000": 9233,
      "Pro": 9234,
      "band": 9235,
      "burn": 9236,
      "ipp": 9237,
      "ry,Ġ": 9238,
      "sent": 9239,
      "¹æŀľ": 9240,
      "»çĸĹ": 9241,
      "çļĦåŃ¦çĶŁ": 9242,
      "çļĦéĢŁåº¦": 9243,
      "ãĢĤĠä½Ĩ": 9244,
      "ĠæĪĳå°±": 9245,
      "raq": 9246,
      ",ĠIĠdon'tĠ": 9247,
      "ĠåĽ½": 9248,
      "åĨ³äºİ": 9249,
      "åıĳçĶŁãĢĤčĊ": 9250,
      "says,Ġ\"": 9251,
      "ä¼łéĢĴ": 9252,
      "ĠaĠmillion": 9253,
      "cris": 9254,
      "ï¼ĮĠä½łåı¯ä»¥": 9255,
      "line.čĊ": 9256,
      "æĮīçħ§": 9257,
      "ç¿»è¯ĳ": 9258,
      "dealĠwith": 9259,
      "uddenlyĠ": 9260,
      "Ġåģĩå¦Ĥ": 9261,
      "ĠåħĭéĩĮæĸ¯": 9262,
      "æľĽè¿ľéķľ": 9263,
      "simpleĠ": 9264,
      "uin": 9265,
      "ä¸Ģç¾¤": 9266,
      "åľ¨åĵªéĩĮ": 9267,
      "ĠAct": 9268,
      "esĠwith": 9269,
      "ĠandĠaĠhalf": 9270,
      "s,ĠbecauseĠ": 9271,
      "toĠbeĠ": 9272,
      "éĿ¢ç§¯": 9273,
      "ival": 9274,
      "è·µ": 9275,
      "ï¼ĮæĪĳè®¤ä¸º": 9276,
      "imple": 9277,
      "èĭ¹æŀľ": 9278,
      "body.čĊ": 9279,
      "ĠspaceĠ": 9280,
      "landscap": 9281,
      "Ġåıªæĺ¯": 9282,
      "æĻ®éģį": 9283,
      "ä¼ĬæľĹ": 9284,
      "çĽ¸å½ĵäºİ": 9285,
      "ç¼ºä¹ı": 9286,
      "knowledgeĠ": 9287,
      "çĪ¸çĪ¸": 9288,
      "åĪºæ¿Ģ": 9289,
      "çļĦçĪ¶äº²": 9290,
      "cup": 9291,
      "ilesĠ": 9292,
      "inalĠ": 9293,
      "çļĦéĩįè¦ģ": 9294,
      "sĠus": 9295,
      "ĠAs": 9296,
      "entrepren": 9297,
      "ami": 9298,
      "ĠæĪĳä»¬è¿ĺ": 9299,
      "Ġfun": 9300,
      "ĠthinkĠofĠ": 9301,
      "ĠSoĠthisĠisĠ": 9302,
      "éķ¿çļĦ": 9303,
      "Ġthis,Ġ": 9304,
      "ĠtheĠfutureĠ": 9305,
      "e,ĠaĠ": 9306,
      "æĢĿç»´": 9307,
      "ç¾İåĽ½äºº": 9308,
      "å¼ºçĥĪ": 9309,
      "ç»´æĮģ": 9310,
      "before.čĊ": 9311,
      "ï¼Įå½ĵçĦ¶": 9312,
      "stuff.čĊ": 9313,
      "voiceĠ": 9314,
      "ĠâĻªĠâĻª": 9315,
      "åĲ¯åıĳ": 9316,
      "éº»çĥ¦": 9317,
      "22": 9318,
      "cat": 9319,
      "eli": 9320,
      "mat": 9321,
      "waterĠ": 9322,
      "®åĬ©": 9323,
      "Ġä¸¾": 9324,
      "ä¸Ī": 9325,
      "ingĠand": 9326,
      "ics.čĊ": 9327,
      "Ġcol": 9328,
      "ĠThink": 9329,
      "æĹĹ": 9330,
      "Ġè¿Ļä¹Łæĺ¯": 9331,
      "ĠtoĠthatĠ": 9332,
      "éĤ£æĺ¯": 9333,
      "ĠinĠtheĠm": 9334,
      "èµı": 9335,
      "ourĠm": 9336,
      "å®ĥčĊ": 9337,
      "çĤ¹čĊ": 9338,
      "effort": 9339,
      "doĠitĠ": 9340,
      "Ġthings": 9341,
      "ç¥Ŀ": 9342,
      "Ġçİ°åľ¨æĪĳ": 9343,
      "èµ°åĲĳ": 9344,
      "ĠåĲĳ": 9345,
      "offĠtheĠ": 9346,
      "ä¾¿å®ľ": 9347,
      "enoughĠtoĠ": 9348,
      "æĢĢçĸĳ": 9349,
      "çļĦæ¨¡å¼ı": 9350,
      "èĦĨå¼±": 9351,
      "çļĦæ¢¦æĥ³": 9352,
      "Brit": 9353,
      "ĠZ": 9354,
      "ĠhadĠ": 9355,
      "Ġè¿Ľè¡Į": 9356,
      "ondon": 9357,
      "ï¼ĮĠæĪĸ": 9358,
      "èĢ¶": 9359,
      "ĠtoĠtheĠs": 9360,
      "nos": 9361,
      "å®¶äºº": 9362,
      "æĪĲæŀľ": 9363,
      "åĪĨå¸ĥ": 9364,
      "æ¬£": 9365,
      "ä¸ĢäºĽäºº": 9366,
      "åħ¬ä¼Ĺ": 9367,
      "newsĠ": 9368,
      "whenĠyouĠ": 9369,
      "dead": 9370,
      "blueĠ": 9371,
      "Ġå¤§æ¦Ĥ": 9372,
      "ï¼Įè¿Ļå°±æĺ¯": 9373,
      "oneĠofĠtheĠmostĠ": 9374,
      "colleagu": 9375,
      "Ġæ¯ıä¸ª": 9376,
      "didĠnotĠ": 9377,
      "æĳĦåĥı": 9378,
      "ĠthoseĠs": 9379,
      "çļĦæŃ»": 9380,
      "ĠaĠcoupleĠ": 9381,
      "catch": 9382,
      "eech": 9383,
      "seven": 9384,
      "çļĦä½įç½®": 9385,
      "ingĠtheĠs": 9386,
      "ä¸Ģç³»åĪĹ": 9387,
      "ĠToday": 9388,
      "lost": 9389,
      "ĠæĪĳä»¬å°Ĩ": 9390,
      "çĿ£": 9391,
      "ä»İä¸Ń": 9392,
      "spread": 9393,
      "éĩįå¤§": 9394,
      "ĠartĠ": 9395,
      "åĮĸãĢĤčĊ": 9396,
      "éĿŀå¸¸æľī": 9397,
      "åĲĪçĲĨ": 9398,
      "anceĠofĠ": 9399,
      "ĠanĠun": 9400,
      "ĠåĽłä¸ºä»ĸä»¬": 9401,
      ",ĠweĠhaveĠ": 9402,
      "è®°èĢħ": 9403,
      "å¾·åĽ½": 9404,
      "çļĦéĹ®é¢ĺčĊ": 9405,
      "creativeĠ": 9406,
      "we'veĠbeen": 9407,
      "mayĠbeĠ": 9408,
      "Ġthree-": 9409,
      "æ¶īåıĬ": 9410,
      "æĶ»åĩ»": 9411,
      "çĴĥ": 9412,
      "iver": 9413,
      "ed,": 9414,
      "Ġindust": 9415,
      "åģļä¸Ģä¸ª": 9416,
      "æ²¡éĶĻ": 9417,
[...]
